{
    "version": "1.0",
    "truncation": null,
    "padding": null,
    "added_tokens": [
        {
            "id": 0,
            "special": true,
            "content": "</s>",
            "single_word": false,
            "lstrip": false,
            "rstrip": false,
            "normalized": false
        },
        {
            "id": 1,
            "special": true,
            "content": "<unk>",
            "single_word": false,
            "lstrip": false,
            "rstrip": false,
            "normalized": false
        },
        {
            "id": 62801,
            "special": true,
            "content": "<pad>",
            "single_word": false,
            "lstrip": false,
            "rstrip": false,
            "normalized": false
        }
    ],
    "normalizer": {
        "type": "Precompiled",
        "precompiled_charsmap": null
    },
    "pre_tokenizer": {
        "type": "Sequence",
        "pretokenizers": [
            {
                "type": "WhitespaceSplit"
            },
            {
                "type": "Metaspace",
                "replacement": "\u2581",
                "add_prefix_space": true
            }
        ]
    },
    "post_processor": {
        "type": "TemplateProcessing",
        "single": [
            {
                "Sequence": {
                    "id": "A",
                    "type_id": 0
                }
            },
            {
                "SpecialToken": {
                    "id": "</s>",
                    "type_id": 0
                }
            }
        ],
        "pair": [
            {
                "Sequence": {
                    "id": "A",
                    "type_id": 0
                }
            },
            {
                "SpecialToken": {
                    "id": "</s>",
                    "type_id": 0
                }
            },
            {
                "Sequence": {
                    "id": "B",
                    "type_id": 0
                }
            },
            {
                "SpecialToken": {
                    "id": "</s>",
                    "type_id": 0
                }
            }
        ],
        "special_tokens": {
            "</s>": {
                "id": "</s>",
                "ids": [
                    0
                ],
                "tokens": [
                    "</s>"
                ]
            }
        }
    },
    "decoder": {
        "type": "Metaspace",
        "replacement": "\u2581",
        "add_prefix_space": true
    },
    "model": {
        "type": "Unigram",
        "unk_id": 2,
        "vocab": [
            [
                "</s>",
                0.0
            ],
            [
                "<unk>",
                0.0
            ],
            [
                ".",
                -3.1740431785583496
            ],
            [
                "\u2581the",
                -2.917306423187256
            ],
            [
                ">>ara<<",
                -100
            ],
            [
                ",",
                -3.177990198135376
            ],
            [
                "\u2581of",
                -3.378457546234131
            ],
            [
                "\u060c",
                -3.5737192630767822
            ],
            [
                "\u2581and",
                -3.6708290576934814
            ],
            [
                "\u2581to",
                -3.758607864379883
            ],
            [
                "\u2581\u0641\u064a",
                -3.732470750808716
            ],
            [
                "\u2581in",
                -4.160802841186523
            ],
            [
                "\u2581\u0645\u0646",
                -4.086158275604248
            ],
            [
                "\u2581(",
                -4.910524368286133
            ],
            [
                "\u2581-",
                -4.72675895690918
            ],
            [
                "\u2581a",
                -4.49525260925293
            ],
            [
                "'",
                -4.440533638000488
            ],
            [
                "\u2581\u0639\u0644\u0649",
                -4.576482772827148
            ],
            [
                "s",
                -4.538134574890137
            ],
            [
                "\u2581for",
                -4.756476402282715
            ],
            [
                "\u2581that",
                -4.772312641143799
            ],
            [
                "\u2581\u0623\u0646",
                -4.710771083831787
            ],
            [
                "-",
                -4.913461685180664
            ],
            [
                "\u2581on",
                -4.857254505157471
            ],
            [
                "\u2581I",
                -4.753203868865967
            ],
            [
                ")",
                -5.325012683868408
            ],
            [
                "\u064b",
                -4.854169845581055
            ],
            [
                "\u2581\u0625\u0644\u0649",
                -4.950288772583008
            ],
            [
                "\u2581\u0648",
                -4.990225791931152
            ],
            [
                "/",
                -5.375630855560303
            ],
            [
                "\u2581you",
                -5.054920196533203
            ],
            [
                "\u2581The",
                -5.202833652496338
            ],
            [
                "?",
                -5.132355213165283
            ],
            [
                "\u2581is",
                -5.2563934326171875
            ],
            [
                "\u2581with",
                -5.322836399078369
            ],
            [
                "\u0629",
                -5.2308807373046875
            ],
            [
                "\u2581\"",
                -5.695895195007324
            ],
            [
                "\u0627",
                -5.127010822296143
            ],
            [
                "\u0647",
                -5.167746067047119
            ],
            [
                "\u2581by",
                -5.423551082611084
            ],
            [
                "\u2581be",
                -5.3987040519714355
            ],
            [
                "\u2581\u0627\u0644\u062a\u064a",
                -5.397032737731934
            ],
            [
                "\u2581as",
                -5.538680553436279
            ],
            [
                "\u2581\u0639\u0646",
                -5.440966606140137
            ],
            [
                "\u2581it",
                -5.4761223793029785
            ],
            [
                "\u2581\u0644\u0627",
                -5.418797969818115
            ],
            [
                "\u064f",
                -5.474069595336914
            ],
            [
                "\u064a",
                -5.3881306648254395
            ],
            [
                "\u0651",
                -5.5097784996032715
            ],
            [
                "\u0647\u0627",
                -5.483642101287842
            ],
            [
                ":",
                -6.3201727867126465
            ],
            [
                "\u061f",
                -5.491361141204834
            ],
            [
                "\u2581\u0647\u0630\u0627",
                -5.570065498352051
            ],
            [
                "\u2581was",
                -5.6844072341918945
            ],
            [
                "\u2581\u0627\u0644\u0645\u062a\u062d\u062f\u0629",
                -5.710122585296631
            ],
            [
                "t",
                -5.700408935546875
            ],
            [
                "\u2581are",
                -5.809980869293213
            ],
            [
                "\u2581\u0645\u0627",
                -5.75413703918457
            ],
            [
                "\u2581\u0630\u0644\u0643",
                -5.779071807861328
            ],
            [
                "\u2581\u0623\u0648",
                -5.813610076904297
            ],
            [
                "\u2581at",
                -5.898268222808838
            ],
            [
                "\u2581its",
                -5.931180000305176
            ],
            [
                "\u064e",
                -5.73795747756958
            ],
            [
                "\u2581have",
                -5.8813958168029785
            ],
            [
                "\u2581this",
                -5.919209003448486
            ],
            [
                "!",
                -6.144982814788818
            ],
            [
                "\u2581not",
                -5.934358596801758
            ],
            [
                "\u2581United",
                -5.986997604370117
            ],
            [
                ";",
                -5.976920127868652
            ],
            [
                "\u2581from",
                -5.998253345489502
            ],
            [
                "\u2581\u0627\u0644\u0623\u0645\u0645",
                -5.988831520080566
            ],
            [
                "\u2581\u0647\u0630\u0647",
                -5.963271141052246
            ],
            [
                "\u2581or",
                -6.061302661895752
            ],
            [
                "\u061b",
                -6.008471965789795
            ],
            [
                "\u0627\u062a",
                -6.085055828094482
            ],
            [
                "\u2581\u0645\u0639",
                -6.004786968231201
            ],
            [
                "...",
                -6.379916667938232
            ],
            [
                "\u0640",
                -5.968991756439209
            ],
            [
                "\u2581Nations",
                -6.141462326049805
            ],
            [
                "\u2581",
                -6.268774509429932
            ],
            [
                "\u064a\u0646",
                -6.057420253753662
            ],
            [
                "\u2581all",
                -6.137210845947266
            ],
            [
                "\u2581an",
                -6.180928707122803
            ],
            [
                "\u2581.",
                -6.236006259918213
            ],
            [
                "\u2581\u0644",
                -6.05527925491333
            ],
            [
                "\u2581\u0628",
                -6.090683937072754
            ],
            [
                "\u0650",
                -6.075462818145752
            ],
            [
                "\u2581\u0627\u0644\u0630\u064a",
                -6.168294429779053
            ],
            [
                "\u2581which",
                -6.2800421714782715
            ],
            [
                "\u062a",
                -6.086333751678467
            ],
            [
                "\u2581their",
                -6.301492214202881
            ],
            [
                "\u2581\u0627\u0644\u0644\u062c\u0646\u0629",
                -6.24160099029541
            ],
            [
                "\u2581You",
                -6.221043109893799
            ],
            [
                "\u0643",
                -6.072549819946289
            ],
            [
                "\u2581Committee",
                -6.365733623504639
            ],
            [
                "\u2581has",
                -6.359109878540039
            ],
            [
                "m",
                -6.239055633544922
            ],
            [
                "\u2581A",
                -6.6088151931762695
            ],
            [
                "\u2581It",
                -6.321811676025391
            ],
            [
                "\u2581In",
                -6.428936958312988
            ],
            [
                "\u2581\u060c",
                -6.251276016235352
            ],
            [
                "\u2581\u0644\u0645",
                -6.292572498321533
            ],
            [
                "\u2581me",
                -6.2918291091918945
            ],
            [
                "\u2581'",
                -6.57575798034668
            ],
            [
                "\u2581will",
                -6.411289215087891
            ],
            [
                "\u2581been",
                -6.428304672241211
            ],
            [
                "\u2581had",
                -6.451136112213135
            ],
            [
                "\u2581\u0628\u064a\u0646",
                -6.391733646392822
            ],
            [
                "\u2581States",
                -6.483588218688965
            ],
            [
                "\u2581\u063a\u064a\u0631",
                -6.386081695556641
            ],
            [
                "\u2581\u0648\u0641\u064a",
                -6.446547985076904
            ],
            [
                "\u2581we",
                -6.385730743408203
            ],
            [
                "\u2581\u064a",
                -6.363357067108154
            ],
            [
                "\u2581\u0628\u0634\u0623\u0646",
                -6.4485063552856445
            ],
            [
                "\u2581\u0627\u0644\u0639\u0627\u0645\u0629",
                -6.456108570098877
            ],
            [
                "\u2581were",
                -6.516853332519531
            ],
            [
                "\u2581international",
                -6.561578273773193
            ],
            [
                "\u2581\u061f",
                -6.358915328979492
            ],
            [
                "\u0646",
                -6.287067890167236
            ],
            [
                "\u0648\u0646",
                -6.427981376647949
            ],
            [
                "re",
                -6.427279949188232
            ],
            [
                "\u2581\u062a",
                -6.4742350578308105
            ],
            [
                "\u0645",
                -6.376824855804443
            ],
            [
                "\u2581should",
                -6.6096296310424805
            ],
            [
                "\u2581also",
                -6.628891944885254
            ],
            [
                "\u2581would",
                -6.601552486419678
            ],
            [
                "\u2581other",
                -6.611495018005371
            ],
            [
                "\u064a\u0629",
                -6.569350242614746
            ],
            [
                "\u2581can",
                -6.581719398498535
            ],
            [
                "\u2581\u0627\u0644\u0639\u0627\u0645",
                -6.603314399719238
            ],
            [
                "\u0646\u0627",
                -6.5131516456604
            ],
            [
                "\u2581\u0643\u0627\u0646",
                -6.534251689910889
            ],
            [
                "\u2581\u0627\u0644",
                -6.571610450744629
            ],
            [
                "\u0628",
                -6.543581485748291
            ],
            [
                "\u2581\u0645",
                -6.590579509735107
            ],
            [
                "\u2581\u0643\u0644",
                -6.563019275665283
            ],
            [
                "\u2581Council",
                -6.7338666915893555
            ],
            [
                "\u2581my",
                -6.618906497955322
            ],
            [
                "\u0647\u0645",
                -6.551616668701172
            ],
            [
                "ing",
                -6.709987163543701
            ],
            [
                "\u2581s",
                -6.782499313354492
            ],
            [
                "\u062f",
                -6.593325138092041
            ],
            [
                "\u2581development",
                -6.766234397888184
            ],
            [
                "\u2581)",
                -6.693943023681641
            ],
            [
                "\u2581do",
                -6.661979675292969
            ],
            [
                "\u2581\u0647\u0648",
                -6.6306843757629395
            ],
            [
                "\u25811",
                -7.286613464355469
            ],
            [
                "\u2581your",
                -6.644031047821045
            ],
            [
                "\u2581out",
                -6.701012134552002
            ],
            [
                "\u2581\u0639\u0627\u0645",
                -6.696950912475586
            ],
            [
                "\u2581\u0648\u0627\u0644",
                -6.778308868408203
            ],
            [
                "\u2581\u0623\u064a\u0636\u0627",
                -6.707699298858643
            ],
            [
                "\u2581rights",
                -6.811697006225586
            ],
            [
                "\u2581countries",
                -6.801985740661621
            ],
            [
                "\u2581\u0627\u0644\u062f\u0648\u0644\u064a\u0629",
                -6.742298126220703
            ],
            [
                "\u2581he",
                -6.7110371589660645
            ],
            [
                "\u2581\u0627\u0644\u0625\u0646\u0633\u0627\u0646",
                -6.746237754821777
            ],
            [
                "\u2581\u0627\u0644\u062f\u0648\u0644",
                -6.732742786407471
            ],
            [
                ").",
                -7.46244478225708
            ],
            [
                "\u0648\u0627",
                -6.735833644866943
            ],
            [
                "d",
                -6.803818225860596
            ],
            [
                "\u2581We",
                -6.74220085144043
            ],
            [
                "\u2581know",
                -6.693222999572754
            ],
            [
                "\u2581\u0627\u0644\u0639\u0645\u0644",
                -6.754526138305664
            ],
            [
                "\u2581report",
                -6.8341755867004395
            ],
            [
                "\u2581\u0623",
                -6.67012357711792
            ],
            [
                "\u2581\u0627\u0644\u062f\u0648\u0644\u064a",
                -6.765716075897217
            ],
            [
                "\u2581\u0623\u064a",
                -6.707569122314453
            ],
            [
                "\u2581\u0623\u062c\u0644",
                -6.751607418060303
            ],
            [
                "\u2581\u0625\u0646",
                -6.7143778800964355
            ],
            [
                "\u2581they",
                -6.826359272003174
            ],
            [
                "\u2581one",
                -6.815463542938232
            ],
            [
                "\u2581\u0642\u062f",
                -6.777032375335693
            ],
            [
                "\u2581\u062c\u0645\u064a\u0639",
                -6.816797733306885
            ],
            [
                "\u2581right",
                -6.813803672790527
            ],
            [
                "\u2581\u0623\u0646\u0627",
                -6.744390964508057
            ],
            [
                "(",
                -6.778741836547852
            ],
            [
                "\u2581under",
                -6.935249328613281
            ],
            [
                "\u2581resolution",
                -6.932223796844482
            ],
            [
                "\u2581what",
                -6.8283586502075195
            ],
            [
                "\u0640\u0640",
                -6.804763317108154
            ],
            [
                "\u2581\u0628\u0645\u0627",
                -6.876715660095215
            ],
            [
                "A",
                -7.481024265289307
            ],
            [
                "\u2581\u0647\u0644",
                -6.744945049285889
            ],
            [
                "\u2581work",
                -6.926943302154541
            ],
            [
                "\u2581about",
                -6.874814033508301
            ],
            [
                "\u2581there",
                -6.977811336517334
            ],
            [
                "\u2581What",
                -6.839848041534424
            ],
            [
                "\u2581\u062d\u0642\u0648\u0642",
                -6.910009384155273
            ],
            [
                "\u2581such",
                -6.971047878265381
            ],
            [
                "\u2581\u064a\u0627",
                -6.802106857299805
            ],
            [
                "\u2581\u0627\u0644\u0623\u0648\u0644",
                -6.899346828460693
            ],
            [
                "\u2581human",
                -6.989786624908447
            ],
            [
                "\u2581\u0627\u0644\u0645",
                -7.012136459350586
            ],
            [
                "\u2581including",
                -6.9923505783081055
            ],
            [
                "\u2581Assembly",
                -7.002360820770264
            ],
            [
                "\u2581General",
                -7.00245475769043
            ],
            [
                "\u2581\u0627\u0644\u0628\u0644\u062f\u0627\u0646",
                -6.92921781539917
            ],
            [
                "\u2581his",
                -6.95553731918335
            ],
            [
                "\u2581women",
                -7.020101070404053
            ],
            [
                "\u0644",
                -6.7440361976623535
            ],
            [
                "\u2581up",
                -6.922413349151611
            ],
            [
                "\u2581\u0644\u0644",
                -6.974301338195801
            ],
            [
                "\u2581but",
                -6.955112934112549
            ],
            [
                "\u2581\u0644\u0642\u062f",
                -6.837162971496582
            ],
            [
                "\u2581\u0623\u0646\u0647",
                -6.969079971313477
            ],
            [
                "\u2581\u0628\u0627\u0644",
                -6.964704990386963
            ],
            [
                "\"",
                -6.912921905517578
            ],
            [
                "\u2581no",
                -6.9744157791137695
            ],
            [
                "\u2581so",
                -6.979665756225586
            ],
            [
                "\u25813",
                -7.5743184089660645
            ],
            [
                "\u0631",
                -6.852158069610596
            ],
            [
                "\u2581more",
                -7.054296970367432
            ],
            [
                "\u25812",
                -7.472347736358643
            ],
            [
                "\u2581information",
                -7.096532821655273
            ],
            [
                "\u2581support",
                -7.087596416473389
            ],
            [
                "\u2581just",
                -6.975862503051758
            ],
            [
                "General",
                -7.098588943481445
            ],
            [
                "\u2581like",
                -7.000060558319092
            ],
            [
                "\u0623",
                -7.019656658172607
            ],
            [
                "\u2581session",
                -7.111319541931152
            ],
            [
                "\u2581\u0643\u0645\u0627",
                -7.017349720001221
            ],
            [
                "\u2581national",
                -7.109652996063232
            ],
            [
                "\u0652",
                -6.946887016296387
            ],
            [
                "\u2581\u0648\u0642\u062f",
                -7.046299457550049
            ],
            [
                "\u2581don",
                -6.997387886047363
            ],
            [
                "\u2581\u062e\u0644\u0627\u0644",
                -7.049925804138184
            ],
            [
                "\u2581State",
                -7.1306304931640625
            ],
            [
                "a",
                -7.206033229827881
            ],
            [
                "\u2581made",
                -7.13139533996582
            ],
            [
                "\u2581No",
                -7.05861759185791
            ],
            [
                "\u2581Secretary",
                -7.1507978439331055
            ],
            [
                "\u2581And",
                -7.021289825439453
            ],
            [
                "\u2581into",
                -7.131911277770996
            ],
            [
                "\u2581\u0627\u0644\u062c\u0645\u0639\u064a\u0629",
                -7.088297367095947
            ],
            [
                "\u2581\u0641\u064a\u0645\u0627",
                -7.1046552658081055
            ],
            [
                "\u2581,",
                -6.96096658706665
            ],
            [
                "\u2581He",
                -7.070222854614258
            ],
            [
                "\u2581those",
                -7.152116298675537
            ],
            [
                "\u0627\u0646",
                -7.068018436431885
            ],
            [
                "\u2581who",
                -7.1222639083862305
            ],
            [
                "\u2581\u0628\u0639\u062f",
                -7.06162166595459
            ],
            [
                "\u2581\u0628\u0647\u0627",
                -7.119824409484863
            ],
            [
                "\u2581\u0628\u0623\u0646",
                -7.070732116699219
            ],
            [
                "\u0649",
                -7.047997951507568
            ],
            [
                "\u2581them",
                -7.283667087554932
            ],
            [
                "\u2581\u0627\u0644\u0645\u062a\u0639\u0644\u0642\u0629",
                -7.15532112121582
            ],
            [
                "\u2581\u064a\u0645\u0643\u0646",
                -7.095442295074463
            ],
            [
                "\u2581implementation",
                -7.217235088348389
            ],
            [
                "\u2581need",
                -7.1421098709106445
            ],
            [
                "\u2581time",
                -7.1460700035095215
            ],
            [
                "\u2581Convention",
                -7.217855930328369
            ],
            [
                "\u2581if",
                -7.143937587738037
            ],
            [
                "\u2581\u0623\u0646\u062a",
                -7.036077976226807
            ],
            [
                "\u2581\u0627\u0644\u0623\u0645\u0646",
                -7.148958683013916
            ],
            [
                "\u2581This",
                -7.180941581726074
            ],
            [
                "\u2581\u0627\u0646",
                -7.048743724822998
            ],
            [
                "\u2581well",
                -7.2180867195129395
            ],
            [
                "\u2581\u0647\u064a",
                -7.108802795410156
            ],
            [
                "\u2581here",
                -7.119363784790039
            ],
            [
                "\u2581\u062a\u0644\u0643",
                -7.13870096206665
            ],
            [
                "ll",
                -7.115532875061035
            ],
            [
                "\u2581\u0647\u0646\u0627\u0643",
                -7.095996379852295
            ],
            [
                "\u2581any",
                -7.218379497528076
            ],
            [
                "\u2581\u0645\u062c\u0644\u0633",
                -7.182272434234619
            ],
            [
                "\u2581Government",
                -7.25813627243042
            ],
            [
                "\u2581her",
                -7.1582722663879395
            ],
            [
                "\u2581\u0625\u0630\u0627",
                -7.123449325561523
            ],
            [
                "\u2581\u0627\u0644\u0623\u0645\u064a\u0646",
                -7.189485549926758
            ],
            [
                "\u2581Commission",
                -7.277004718780518
            ],
            [
                "\u25814",
                -7.735429763793945
            ],
            [
                "\u2581him",
                -7.163256645202637
            ],
            [
                "\u2581\u0647\u0646\u0627",
                -7.0786356925964355
            ],
            [
                "\u2581International",
                -7.287899971008301
            ],
            [
                "\u2581\u0627\u0644\u0623\u0637\u0631\u0627\u0641",
                -7.222799777984619
            ],
            [
                "\u2581activities",
                -7.292383193969727
            ],
            [
                "\u2581\u0627\u0644\u0645\u062c\u0644\u0633",
                -7.220492362976074
            ],
            [
                "\u2581through",
                -7.276278495788574
            ],
            [
                "\u2581could",
                -7.251260757446289
            ],
            [
                "\u2581against",
                -7.29255485534668
            ],
            [
                "\u062c",
                -7.163015842437744
            ],
            [
                "\u2581\u0646",
                -7.182043552398682
            ],
            [
                "\u2581\u0641\u064a\u0647\u0627",
                -7.37812614440918
            ],
            [
                "\u2581\u0627\u0644\u0645\u0627\u062f\u0629",
                -7.242461204528809
            ],
            [
                "),",
                -7.578784465789795
            ],
            [
                "\u25815",
                -7.79098653793335
            ],
            [
                "\u2581Mr",
                -7.279318809509277
            ],
            [
                "C",
                -7.910373687744141
            ],
            [
                "\u0627\u0644",
                -7.224946975708008
            ],
            [
                "\u2581\u062a\u0646\u0641\u064a\u0630",
                -7.2482829093933105
            ],
            [
                "\u2581\u062d\u0633\u0646\u0627",
                -7.122997760772705
            ],
            [
                "\u2581\u201c",
                -7.541975975036621
            ],
            [
                "\u0648",
                -7.082348346710205
            ],
            [
                "ed",
                -7.3049163818359375
            ],
            [
                "\u2581some",
                -7.285467624664307
            ],
            [
                "\u2581\u0627\u0644\u062b\u0627\u0646\u064a",
                -7.267509937286377
            ],
            [
                "\u2581between",
                -7.3501458168029785
            ],
            [
                "\u2581\u0627\u0644\u0648\u0637\u0646\u064a\u0629",
                -7.293763637542725
            ],
            [
                "\u2581\u0648\u0644\u0627",
                -7.256928443908691
            ],
            [
                "\u2581That",
                -7.243832588195801
            ],
            [
                "\u2581\u0623\u062e\u0631\u0649",
                -7.261618137359619
            ],
            [
                "\u2581take",
                -7.29379940032959
            ],
            [
                "\u2581get",
                -7.220980167388916
            ],
            [
                "\u2581\u0648\u0645\u0646",
                -7.28342866897583
            ],
            [
                "\u2581\u0645\u0627\u0630\u0627",
                -7.16789436340332
            ],
            [
                "\u2581meeting",
                -7.364758491516113
            ],
            [
                "\u0651\u064e",
                -7.3067731857299805
            ],
            [
                "\u2581\u0643\u0627\u0646\u062a",
                -7.25542688369751
            ],
            [
                "\u2581people",
                -7.324532985687256
            ],
            [
                "\u2581\u0627\u0644\u0622\u0646",
                -7.224109172821045
            ],
            [
                "\u2581our",
                -7.325913429260254
            ],
            [
                "\u2581\u064a\u062a\u0639\u0644\u0642",
                -7.316798686981201
            ],
            [
                "\u2581new",
                -7.354806900024414
            ],
            [
                "\u2581law",
                -7.382685661315918
            ],
            [
                "\u2581\u0630\u0627\u062a",
                -7.309450626373291
            ],
            [
                "\u2581these",
                -7.367631912231445
            ],
            [
                "\u2581\u0627\u0644\u0642\u0631\u0627\u0631",
                -7.316204071044922
            ],
            [
                "\u2581\u0645\u0634\u0631\u0648\u0639",
                -7.3170166015625
            ],
            [
                "\u258110",
                -8.003174781799316
            ],
            [
                "e",
                -7.439515113830566
            ],
            [
                "\u2581\u0628\u0639\u0636",
                -7.301839828491211
            ],
            [
                "\u25816",
                -7.9441986083984375
            ],
            [
                "\u2581\u0639\u0645\u0644",
                -7.330260276794434
            ],
            [
                "\u2581per",
                -7.453544616699219
            ],
            [
                "\u2581\u0641",
                -7.316689968109131
            ],
            [
                "\u2581system",
                -7.430901050567627
            ],
            [
                "\u2581\u0627\u0644\u0642\u0627\u0646\u0648\u0646",
                -7.375692367553711
            ],
            [
                "\u2581country",
                -7.453283786773682
            ],
            [
                "\u2581Security",
                -7.461053848266602
            ],
            [
                "\u2581two",
                -7.420280456542969
            ],
            [
                "\u2581\u0627\u0644\u0645\u0639\u0644\u0648\u0645\u0627\u062a",
                -7.397766590118408
            ],
            [
                "\u2581go",
                -7.329893112182617
            ],
            [
                "\u2581\u0643\u0627\u0646\u0648\u0646",
                -7.394845962524414
            ],
            [
                "\u2581measures",
                -7.475230693817139
            ],
            [
                "\u2581\u0628\u0647",
                -7.354659080505371
            ],
            [
                ")\u060c",
                -7.573670864105225
            ],
            [
                "\u2581...",
                -7.475420951843262
            ],
            [
                "\u2581organizations",
                -7.481637954711914
            ],
            [
                "\u2581Conference",
                -7.4633331298828125
            ],
            [
                "\u2581\u0642\u0628\u0644",
                -7.3578033447265625
            ],
            [
                "b",
                -7.560262203216553
            ],
            [
                "\u2581only",
                -7.445096492767334
            ],
            [
                "\u2581[",
                -7.982353687286377
            ],
            [
                "\u2581security",
                -7.489756107330322
            ],
            [
                "ve",
                -7.398773193359375
            ],
            [
                "\u2581over",
                -7.43806791305542
            ],
            [
                "\u2581\u0645\u062c\u0627\u0644",
                -7.421595573425293
            ],
            [
                "\u2581\u062a\u0642\u0631\u064a\u0631",
                -7.394680023193359
            ],
            [
                "\u2581now",
                -7.410134792327881
            ],
            [
                "\u2581Republic",
                -7.426009178161621
            ],
            [
                "\u2581\u0627\u0644\u0641\u0642\u0631\u0629",
                -7.43966817855835
            ],
            [
                "\u2581\u064a\u0643\u0648\u0646",
                -7.3859052658081055
            ],
            [
                "\u2581\u0627\u0644\u0633\u0644\u0627\u0645",
                -7.4382710456848145
            ],
            [
                "\u2581cooperation",
                -7.513139724731445
            ],
            [
                "\u2581\u0627\u0644\u062a\u0646\u0645\u064a\u0629",
                -7.442409992218018
            ],
            [
                "\u2581\u064a\u0646\u0628\u063a\u064a",
                -7.430499076843262
            ],
            [
                "\u2581may",
                -7.504399299621582
            ],
            [
                "\u2581draft",
                -7.52030086517334
            ],
            [
                "\u2581\u0627\u0644\u0623\u0639\u0645\u0627\u0644",
                -7.453323841094971
            ],
            [
                "\u2581\u0625\u0637\u0627\u0631",
                -7.458929061889648
            ],
            [
                "\u2581when",
                -7.460694789886475
            ],
            [
                "\u2581\u0644\u064a\u0633",
                -7.349972724914551
            ],
            [
                "\u2581children",
                -7.53434419631958
            ],
            [
                "\u0646\u064a",
                -7.350526809692383
            ],
            [
                "\u25817",
                -8.034358978271484
            ],
            [
                "\u2581efforts",
                -7.544005393981934
            ],
            [
                "\u2581\u0627\u0644\u062e\u0627\u0635",
                -7.456423282623291
            ],
            [
                "\u2581\u0627\u0644\u0645\u0627\u0626\u0629",
                -7.490571022033691
            ],
            [
                "L",
                -8.163753509521484
            ],
            [
                "\u258115",
                -8.159231185913086
            ],
            [
                "\u2581than",
                -7.524852752685547
            ],
            [
                "\u2581\u0644\u064a",
                -7.406189918518066
            ],
            [
                "\u2581\u062f\u0648\u0644\u0627\u0631",
                -7.459261417388916
            ],
            [
                "\u2581\u062a\u0639\u0632\u064a\u0632",
                -7.503209590911865
            ],
            [
                "\u2581\u062d\u062a\u0649",
                -7.423567771911621
            ],
            [
                "\u2581\u0627\u0644\u062f\u0648\u0644\u0629",
                -7.515871524810791
            ],
            [
                "\u2581\u0644\u062c\u0646\u0629",
                -7.4907917976379395
            ],
            [
                "\u2581programme",
                -7.554320335388184
            ],
            [
                "S",
                -7.977226257324219
            ],
            [
                "\u2581\u0627\u0644\u062e\u0627\u0635\u0629",
                -7.4970502853393555
            ],
            [
                "\u2581\u0648\u064a",
                -7.565619468688965
            ],
            [
                "\u2581\u0627\u0644\u0633\u064a\u062f",
                -7.457589149475098
            ],
            [
                "\u2581\u0628\u0631\u0646\u0627\u0645\u062c",
                -7.49151086807251
            ],
            [
                "\u2581resources",
                -7.5806074142456055
            ],
            [
                "\u0645\u0627",
                -7.502880573272705
            ],
            [
                "\u2581\u064a\u062c\u0628",
                -7.42750883102417
            ],
            [
                "\u2581Development",
                -7.587123870849609
            ],
            [
                "\u2581\u0627\u0644\u0645\u0631\u0623\u0629",
                -7.522204875946045
            ],
            [
                "\u2581\u0641\u0625\u0646",
                -7.494582653045654
            ],
            [
                "\u2581non",
                -7.593100070953369
            ],
            [
                "c",
                -7.770727157592773
            ],
            [
                "\u2581Rights",
                -7.603963851928711
            ],
            [
                "\u2581\u0643\u0646\u062a",
                -7.39359188079834
            ],
            [
                "\u2581\u0627\u0644\u0649",
                -7.431492805480957
            ],
            [
                "\u2581\u0639\u0644\u064a\u0647\u0627",
                -7.518432140350342
            ],
            [
                "\u2581\u0627\u0644\u0623\u0639\u0636\u0627\u0621",
                -7.538223743438721
            ],
            [
                "\u2581\u0641\u0642\u0637",
                -7.426953315734863
            ],
            [
                "\u2581she",
                -7.491256237030029
            ],
            [
                "\u2581\u0644\u0646",
                -7.4385857582092285
            ],
            [
                "\u2581\u0623\u0643\u062b\u0631",
                -7.498799800872803
            ],
            [
                "\u2581make",
                -7.53981351852417
            ],
            [
                "\u2581number",
                -7.591197490692139
            ],
            [
                "\u2581\u0643",
                -7.474753379821777
            ],
            [
                "\u0639",
                -7.388500690460205
            ],
            [
                "\u25818",
                -8.117255210876465
            ],
            [
                "\u2581did",
                -7.532280445098877
            ],
            [
                "\u2581want",
                -7.479268550872803
            ],
            [
                "\u2581Oh",
                -7.490844249725342
            ],
            [
                "\u2581\u0645\u062b\u0644",
                -7.49240255355835
            ],
            [
                "\u2581use",
                -7.599558353424072
            ],
            [
                "\u2581got",
                -7.495631694793701
            ],
            [
                "\u2581order",
                -7.62008810043335
            ],
            [
                "\u2581must",
                -7.611757755279541
            ],
            [
                "\u2581Yeah",
                -7.49875545501709
            ],
            [
                "\u2581\u0639\u062f\u062f",
                -7.563373565673828
            ],
            [
                "\u2581assistance",
                -7.648191928863525
            ],
            [
                "\u2581\u062a\u0642\u062f\u064a\u0645",
                -7.585635662078857
            ],
            [
                "\u2581regional",
                -7.654796123504639
            ],
            [
                "\u2581But",
                -7.5291643142700195
            ],
            [
                "\u2581\u0648\u0623\u0646",
                -7.564946174621582
            ],
            [
                "\u2581first",
                -7.632647514343262
            ],
            [
                "\u2581cent",
                -7.671324729919434
            ],
            [
                "\u2581\u0648\u062a",
                -7.595330238342285
            ],
            [
                "\u2581think",
                -7.528499603271484
            ],
            [
                "\u2581paragraph",
                -7.663055896759033
            ],
            [
                "\u2581years",
                -7.642531871795654
            ],
            [
                "\u2581Group",
                -7.676694393157959
            ],
            [
                "\u2581\u0639\u0645\u0644\u064a\u0629",
                -7.602415561676025
            ],
            [
                "\u2581economic",
                -7.675776481628418
            ],
            [
                "\u2581process",
                -7.677547931671143
            ],
            [
                "\u2581issues",
                -7.689502716064453
            ],
            [
                "\u258130",
                -8.312225341796875
            ],
            [
                "\u2581\u0627\u0644\u0623\u062e\u0631\u0649",
                -7.600706100463867
            ],
            [
                "\u2581\u062c\u062f\u0648\u0644",
                -7.608645439147949
            ],
            [
                "\u2581\u0627\u0644\u062a\u0639\u0627\u0648\u0646",
                -7.61150598526001
            ],
            [
                "\u258112",
                -8.32153034210205
            ],
            [
                "\u2581ensure",
                -7.668935298919678
            ],
            [
                "\u2581provide",
                -7.676375389099121
            ],
            [
                "\u2581\u062a\u0643\u0648\u0646",
                -7.572898864746094
            ],
            [
                "\u2581where",
                -7.648099899291992
            ],
            [
                "\u258120",
                -8.31243896484375
            ],
            [
                "\u2581\u0648\u0636\u0639",
                -7.608603477478027
            ],
            [
                "\u2581members",
                -7.706703186035156
            ],
            [
                "\u2581financial",
                -7.703011989593506
            ],
            [
                "\u2581further",
                -7.706589698791504
            ],
            [
                "\u2581us",
                -7.606564044952393
            ],
            [
                "\u2581So",
                -7.591400623321533
            ],
            [
                "\u2581Human",
                -7.71771240234375
            ],
            [
                "\u25819",
                -8.229039192199707
            ],
            [
                "\u2581\u0627\u0644\u0630\u064a\u0646",
                -7.62919807434082
            ],
            [
                "\u2581\u0634\u064a\u0621",
                -7.52025032043457
            ],
            [
                "\u2581article",
                -7.714507579803467
            ],
            [
                "\u2581said",
                -7.660379886627197
            ],
            [
                "\u2581\u062a\u0634\u0631\u064a\u0646",
                -7.652118682861328
            ],
            [
                "\u2581\u0627",
                -7.577365875244141
            ],
            [
                "\u2581social",
                -7.729016304016113
            ],
            [
                "\u2581Special",
                -7.728161334991455
            ],
            [
                "\u2581\u0627\u0644\u0645\u0639\u0646\u064a\u0629",
                -7.679001331329346
            ],
            [
                "\u2581see",
                -7.609628200531006
            ],
            [
                "\u2581\u0646\u0639\u0645",
                -7.53034782409668
            ],
            [
                "\u2581services",
                -7.743865489959717
            ],
            [
                "\u2581\u0627\u0644\u062f\u0648\u0631\u0629",
                -7.675393104553223
            ],
            [
                "\u2581\u0639\u062f\u0645",
                -7.6799774169921875
            ],
            [
                "\u2581They",
                -7.667480945587158
            ],
            [
                "\u2581\u0627\u0644\u0645\u0648\u0627\u0631\u062f",
                -7.683358192443848
            ],
            [
                "\u2581good",
                -7.646162033081055
            ],
            [
                "\u2581\u0627\u0644\u0645\u0633\u0627\u0639\u062f\u0629",
                -7.689481258392334
            ],
            [
                "\u2581\u0644\u0643\u0646",
                -7.549788475036621
            ],
            [
                "\u2581\u0639\u0644\u064a\u0647",
                -7.626177787780762
            ],
            [
                "\u2581\u0627\u0644\u0648\u0642\u062a",
                -7.634695053100586
            ],
            [
                "\u2581shall",
                -7.7531304359436035
            ],
            [
                "\u2581particular",
                -7.759373664855957
            ],
            [
                "\u2581\u0627\u0644\u0641\u0631\u064a\u0642",
                -7.687540531158447
            ],
            [
                "\u2581S",
                -8.04198169708252
            ],
            [
                "\u2581being",
                -7.742666244506836
            ],
            [
                "\u2581\u0633\u064a",
                -7.65253210067749
            ],
            [
                "\u2581\u0627\u0644\u062a\u0642\u0631\u064a\u0631",
                -7.704102516174316
            ],
            [
                "\u0641",
                -7.611313343048096
            ],
            [
                "\u2581decision",
                -7.762270450592041
            ],
            [
                "\u2581party",
                -7.76740837097168
            ],
            [
                "\u2581within",
                -7.780622482299805
            ],
            [
                "\u258118",
                -8.427148818969727
            ],
            [
                "\u2581Office",
                -7.779127597808838
            ],
            [
                "]",
                -8.169960021972656
            ],
            [
                "\u0642",
                -7.588413715362549
            ],
            [
                "\u2581way",
                -7.686967849731445
            ],
            [
                "\u2581developing",
                -7.784649848937988
            ],
            [
                "\u2581\u0627\u0644\u0627\u0642\u062a\u0635\u0627\u062f\u064a\u0629",
                -7.7187018394470215
            ],
            [
                "\u2581provided",
                -7.794169902801514
            ],
            [
                "\u2581\u0644\u0647\u0627",
                -7.7123332023620605
            ],
            [
                "\u2581programmes",
                -7.8104729652404785
            ],
            [
                "\u2581\u0627\u0644\u0623\u0637\u0641\u0627\u0644",
                -7.735405445098877
            ],
            [
                "\u258111",
                -8.435608863830566
            ],
            [
                "\u2581relevant",
                -7.814755916595459
            ],
            [
                "\u258114",
                -8.378591537475586
            ],
            [
                "\u2581\u0636\u062f",
                -7.740204334259033
            ],
            [
                "\u2581\u0644\u0643",
                -7.59372615814209
            ],
            [
                "\u2581\u0627\u0644\u0645\u0639\u0646\u064a",
                -7.748472213745117
            ],
            [
                "\u2581!",
                -7.782612323760986
            ],
            [
                "\u2581December",
                -7.804049015045166
            ],
            [
                "\u2581\u062f\u0648\u0646",
                -7.74137544631958
            ],
            [
                "\u2581how",
                -7.737292766571045
            ],
            [
                "\u2581\u0627\u0644\u0627\u062a\u0641\u0627\u0642\u064a\u0629",
                -7.766127586364746
            ],
            [
                "\u2581back",
                -7.709510803222656
            ],
            [
                "\u2581before",
                -7.787439346313477
            ],
            [
                "\u2581Well",
                -7.706916809082031
            ],
            [
                "\u0632",
                -7.749335289001465
            ],
            [
                "\u2581\u0645\u0646\u0647\u0627",
                -7.937835216522217
            ],
            [
                "\u2581There",
                -7.793399333953857
            ],
            [
                "\u2581\u062a\u0645",
                -7.748147487640381
            ],
            [
                "\u2581gonna",
                -7.7069315910339355
            ],
            [
                "\u2581public",
                -7.8401265144348145
            ],
            [
                "\u2581\u0643\u0630\u0644\u0643",
                -7.708948135375977
            ],
            [
                "\u2581adopted",
                -7.861761093139648
            ],
            [
                "\u2581\u0648\u0644\u0643\u0646",
                -7.677423477172852
            ],
            [
                "\u2581\u0627\u0644\u0623\u0645\u0631",
                -7.697388648986816
            ],
            [
                "\u2581\u0646\u062d\u0648",
                -7.781867980957031
            ],
            [
                "\u2581period",
                -7.8426103591918945
            ],
            [
                "\u2581\u0627\u0644\u0639\u0627\u0644\u0645\u064a",
                -7.784140110015869
            ],
            [
                "\u2581during",
                -7.851248264312744
            ],
            [
                "\u0633",
                -7.615499019622803
            ],
            [
                "\u2581areas",
                -7.8667144775390625
            ],
            [
                "ly",
                -7.800342082977295
            ],
            [
                "\u2581\u0627\u0644\u0635\u0644\u0629",
                -7.7989349365234375
            ],
            [
                "\u2581peace",
                -7.86315393447876
            ],
            [
                "\u2581At",
                -7.880020618438721
            ],
            [
                "\u2581world",
                -7.838421821594238
            ],
            [
                "\u2581staff",
                -7.86710262298584
            ],
            [
                "\u2581management",
                -7.867680072784424
            ],
            [
                "\u2581held",
                -7.873910427093506
            ],
            [
                "\u2581\u0639\u0646\u062f\u0645\u0627",
                -7.713862419128418
            ],
            [
                "\u2581\u0625\u0646\u0647",
                -7.7180962562561035
            ],
            [
                "\u2581\u0627\u0644\u062d\u0643\u0648\u0645\u064a\u0629",
                -7.810108661651611
            ],
            [
                "\u2581As",
                -7.912789821624756
            ],
            [
                "\u2581\u0627\u0644\u0645\u0627\u0644\u064a\u0629",
                -7.825357913970947
            ],
            [
                "\u2581level",
                -7.873684406280518
            ],
            [
                "\u258113",
                -8.503268241882324
            ],
            [
                "\u258116",
                -8.514350891113281
            ],
            [
                "\u2581going",
                -7.765667915344238
            ],
            [
                "\u2581\u0627\u0644\u0645\u062c\u062a\u0645\u0639",
                -7.820505142211914
            ],
            [
                "\u2581\u0648\u0641\u0642\u0627",
                -7.826348304748535
            ],
            [
                "\u2581President",
                -7.8772382736206055
            ],
            [
                "\u0651\u0650",
                -7.855971813201904
            ],
            [
                "\u2581\u0631\u0626\u064a\u0633",
                -7.79209566116333
            ],
            [
                "\u2581\u0625\u062f\u0627\u0631\u0629",
                -7.843391418457031
            ],
            [
                "\u2581She",
                -7.794260025024414
            ],
            [
                "\u2581health",
                -7.9088521003723145
            ],
            [
                "\u258119",
                -8.527531623840332
            ],
            [
                "\u2581situation",
                -7.893391132354736
            ],
            [
                "\u2581\u0633\u062a",
                -7.8040571212768555
            ],
            [
                "\u2581\u0627\u0644\u0623\u0633\u0627\u0633\u064a\u0629",
                -7.844298839569092
            ],
            [
                "\u2581\u0627\u0644\u0641\u062a\u0631\u0629",
                -7.855308532714844
            ],
            [
                "\u2581\u0637\u0631\u064a\u0642",
                -7.807814598083496
            ],
            [
                "\u2581taken",
                -7.917474269866943
            ],
            [
                "\u2581persons",
                -7.9330363273620605
            ],
            [
                "\u2581political",
                -7.922231197357178
            ],
            [
                "\u2581regard",
                -7.915711879730225
            ],
            [
                "\u2581part",
                -7.903467655181885
            ],
            [
                "\u2581\u0628\u0645\u0648\u062c\u0628",
                -7.856958389282227
            ],
            [
                "):",
                -8.30238151550293
            ],
            [
                "\u2581\u0645\u0643\u062a\u0628",
                -7.853453636169434
            ],
            [
                "\u2581action",
                -7.926893711090088
            ],
            [
                "\u2581parties",
                -7.9277801513671875
            ],
            [
                "\u2581\u0627\u0644\u0639\u0627\u0644\u0645\u064a\u0629",
                -7.885135650634766
            ],
            [
                "\u2581\u0648\u0627\u0644\u0645",
                -8.070756912231445
            ],
            [
                "\u2581\u0641\u064a\u0647",
                -8.221334457397461
            ],
            [
                "\u2581All",
                -7.858858108520508
            ],
            [
                "\u2581\u0648\u0625\u0630",
                -7.860769271850586
            ],
            [
                "\u2581\u00bb",
                -7.735629081726074
            ],
            [
                "\u258117",
                -8.570767402648926
            ],
            [
                "\u062f\u064a\u0633\u0645\u0628\u0631",
                -7.863384246826172
            ],
            [
                "\u2581\u00ab",
                -7.7380781173706055
            ],
            [
                "\u2581review",
                -7.932196140289307
            ],
            [
                "\u2581\u0627\u0644\u062d\u0643\u0648\u0645\u0629",
                -7.874989032745361
            ],
            [
                "\u2581following",
                -7.951968193054199
            ],
            [
                "\u2581\u062d\u064a\u062b",
                -7.854264259338379
            ],
            [
                "\u2581\u0645\u0646\u0630",
                -7.846322536468506
            ],
            [
                "\u2581\u0627\u0644\u0646\u0627\u0645\u064a\u0629",
                -7.877490997314453
            ],
            [
                "\u2581legal",
                -7.958696365356445
            ],
            [
                "\u2581protection",
                -7.955387592315674
            ],
            [
                "\u2581community",
                -7.961625099182129
            ],
            [
                "\u2581most",
                -7.936473369598389
            ],
            [
                "\u2581both",
                -7.943714618682861
            ],
            [
                "\u2581\u0628\u0634\u0643\u0644",
                -7.8692145347595215
            ],
            [
                "\u2581education",
                -7.9720540046691895
            ],
            [
                "\u2581Programme",
                -7.957587242126465
            ],
            [
                "\u2581continue",
                -7.952423572540283
            ],
            [
                "\u2581Organization",
                -7.95833683013916
            ],
            [
                "\u2581\u062a\u062d\u0642\u064a\u0642",
                -7.879449844360352
            ],
            [
                "\u2581\u0648\u0639\u0644\u0649",
                -7.897873878479004
            ],
            [
                "\u2581important",
                -7.9714436531066895
            ],
            [
                "\u2581To",
                -7.937904357910156
            ],
            [
                "\u2581\u0627\u0644\u0628\u0646\u062f",
                -7.91060733795166
            ],
            [
                "\u2581same",
                -7.950137615203857
            ],
            [
                "\u2581special",
                -7.9814229011535645
            ],
            [
                "\u2581accordance",
                -7.983798980712891
            ],
            [
                "\u2581respect",
                -7.965263843536377
            ],
            [
                "\u2581\u062d\u0627\u0644\u0629",
                -7.903871536254883
            ],
            [
                "\u2581\u0628\u0646\u0627\u0621",
                -7.914370536804199
            ],
            [
                "\u2581\u0644\u062f\u0649",
                -7.901510715484619
            ],
            [
                "\u2581\u0627\u0644\u0637\u0631\u0641",
                -7.932369709014893
            ],
            [
                "\u2581agenda",
                -7.979602813720703
            ],
            [
                "\u2581\u0623\u0641\u0631\u064a\u0642\u064a\u0627",
                -7.925351619720459
            ],
            [
                "\u2581many",
                -7.97173547744751
            ],
            [
                "\u2581training",
                -7.993155002593994
            ],
            [
                "\u2581\u0648\u0645",
                -8.054084777832031
            ],
            [
                "\u2581\u0627\u0644\u0646\u0638\u0631",
                -7.922246932983398
            ],
            [
                "\u2581\u0633\u0648\u0641",
                -7.828462600708008
            ],
            [
                "\u2581\u0627\u0644\u0623\u0633\u0644\u062d\u0629",
                -7.935210227966309
            ],
            [
                "\u2581policy",
                -8.014567375183105
            ],
            [
                "\u2581among",
                -8.01036262512207
            ],
            [
                "\u258131",
                -8.651843070983887
            ],
            [
                "\u2581\u0648\u0647\u0648",
                -7.9164628982543945
            ],
            [
                "E",
                -8.47960090637207
            ],
            [
                "\u2581year",
                -7.986666202545166
            ],
            [
                "\u2581capacity",
                -8.018133163452148
            ],
            [
                "\u2581E",
                -8.292943954467773
            ],
            [
                "\u2581recommendations",
                -8.039168357849121
            ],
            [
                "\u2581very",
                -7.963779926300049
            ],
            [
                "\u2581\u0644\u0647",
                -7.920746326446533
            ],
            [
                "\u2581\u0627\u0644\u0627\u0642\u062a\u0635\u0627\u062f\u064a",
                -7.950445175170898
            ],
            [
                "\u2581If",
                -7.936985015869141
            ],
            [
                "\u2581\u0627\u0644\u0631\u0626\u064a\u0633",
                -7.927353858947754
            ],
            [
                "\u2581Member",
                -8.031702041625977
            ],
            [
                "\u2581\u0645\u0646\u0638\u0645\u0629",
                -7.963162899017334
            ],
            [
                "\u2581place",
                -7.983963966369629
            ],
            [
                "\u2581\u0623\u0639\u0645\u0627\u0644",
                -7.947686195373535
            ],
            [
                "\u2581\u0627\u0644\u062f\u0639\u0645",
                -7.985479354858398
            ],
            [
                "\u2581three",
                -8.008639335632324
            ],
            [
                "\u2581\u0646\u0638\u0627\u0645",
                -7.958637714385986
            ],
            [
                "\u2581Africa",
                -8.0301513671875
            ],
            [
                "\u2581effective",
                -8.046866416931152
            ],
            [
                "\u2581after",
                -8.00096321105957
            ],
            [
                "\u2581\u0645\u0624\u062a\u0645\u0631",
                -7.977789402008057
            ],
            [
                "\u2581\u062c\u062f\u0627",
                -7.874061107635498
            ],
            [
                "\u2581working",
                -8.03372573852539
            ],
            [
                "\u2581reports",
                -8.092927932739258
            ],
            [
                "\u2581\u062c\u0645\u0647\u0648\u0631\u064a\u0629",
                -7.982728481292725
            ],
            [
                "\u0644\u0627",
                -7.856246471405029
            ],
            [
                "\u2581\u0648\u0623",
                -7.9800496101379395
            ],
            [
                "\u2581come",
                -7.928360462188721
            ],
            [
                "\u2581\u0643\u064a\u0641",
                -7.851988315582275
            ],
            [
                "\u2581\u0627\u0644\u0645\u0624\u0631\u062e",
                -7.952828884124756
            ],
            [
                "\u2581C",
                -8.237554550170898
            ],
            [
                "\u2581\u0623\u062d\u062f",
                -7.912787437438965
            ],
            [
                "\u2581established",
                -8.073625564575195
            ],
            [
                "\u2581\u0627\u0644\u0639\u0627\u0644\u0645",
                -7.9572978019714355
            ],
            [
                "\u062a\u064a",
                -7.987588882446289
            ],
            [
                "\u258121",
                -8.629232406616211
            ],
            [
                "\u2581\u0639\u0645\u0644\u064a\u0627\u062a",
                -8.000044822692871
            ],
            [
                "\u2581\u0627\u0644\u0628\u0631\u0646\u0627\u0645\u062c",
                -7.984171390533447
            ],
            [
                "\u2581\u0632\u064a\u0627\u062f\u0629",
                -8.012259483337402
            ],
            [
                "y",
                -8.108053207397461
            ],
            [
                "\u2581role",
                -8.06258487701416
            ],
            [
                "\u2581\u0648\u0647\u064a",
                -7.994532585144043
            ],
            [
                "\u2581access",
                -8.073378562927246
            ],
            [
                "th",
                -8.112478256225586
            ],
            [
                "\u2581\u0627\u0644\u0625\u0642\u0644\u064a\u0645\u064a\u0629",
                -8.028514862060547
            ],
            [
                "\u2581\u0627\u0644\u0645\u062d\u0643\u0645\u0629",
                -8.01746940612793
            ],
            [
                "\u2581..",
                -7.995680809020996
            ],
            [
                "\u2581because",
                -8.032501220703125
            ],
            [
                "er",
                -8.216641426086426
            ],
            [
                "\u062a\u0647",
                -8.044255256652832
            ],
            [
                "\u2581life",
                -8.029436111450195
            ],
            [
                "\u2581without",
                -8.07043170928955
            ],
            [
                "\u258125",
                -8.680196762084961
            ],
            [
                "\u2581then",
                -8.01552963256836
            ],
            [
                "\u2581view",
                -8.098052024841309
            ],
            [
                "\u2581progress",
                -8.10903549194336
            ],
            [
                "\u2581\u0627\u0644\u0627\u062a\u062d\u0627\u062f",
                -8.027379989624023
            ],
            [
                "\u2581present",
                -8.088236808776855
            ],
            [
                "\u258122",
                -8.679747581481934
            ],
            [
                "\u2581\u0622\u062e\u0631",
                -7.964351654052734
            ],
            [
                "al",
                -8.318642616271973
            ],
            [
                "\u2581\u0627\u0644\u0645\u0646\u0638\u0645\u0627\u062a",
                -8.03627872467041
            ],
            [
                "\u2581related",
                -8.113541603088379
            ],
            [
                "\u2581down",
                -8.00450325012207
            ],
            [
                "\u2581case",
                -8.082304000854492
            ],
            [
                "\u2581P",
                -8.246333122253418
            ],
            [
                "\u2581\u0627\u0644\u0646\u0638\u0627\u0645",
                -8.038772583007812
            ],
            [
                "\u2581\u0633\u064a\u0645\u0627",
                -8.060733795166016
            ],
            [
                "\u2581\u0628\u0627\u0644\u0646\u0633\u0628\u0629",
                -8.0220308303833
            ],
            [
                "\u2581June",
                -8.114418983459473
            ],
            [
                "\u2581World",
                -8.123368263244629
            ],
            [
                "\u2581full",
                -8.119027137756348
            ],
            [
                "\u2581\u0642\u0631\u0627\u0631",
                -8.019484519958496
            ],
            [
                "\u062a\u0647\u0627",
                -8.084922790527344
            ],
            [
                "\u2581set",
                -8.096924781799316
            ],
            [
                "\u2581\u0625\u0644\u0627",
                -8.018401145935059
            ],
            [
                "\u2581\u0623\u0646\u0647\u0627",
                -8.15013313293457
            ],
            [
                "\u2581\u0627\u0644\u0645\u0642\u0631\u0631",
                -8.05500602722168
            ],
            [
                "\u2581help",
                -8.0514497756958
            ],
            [
                "\u2581Parties",
                -8.1510009765625
            ],
            [
                "\u2581say",
                -8.005105972290039
            ],
            [
                "\u0643\u0645",
                -7.924956321716309
            ],
            [
                "\u2581nuclear",
                -8.132786750793457
            ],
            [
                "\u2581How",
                -8.022040367126465
            ],
            [
                "\u2581item",
                -8.134682655334473
            ],
            [
                "\u2581For",
                -8.109794616699219
            ],
            [
                "\u2581\u0648\u0630\u0644\u0643",
                -8.070497512817383
            ],
            [
                "\u2581\u0627\u0644\u0625\u062f\u0627\u0631\u0629",
                -8.073905944824219
            ],
            [
                "\u2581since",
                -8.130067825317383
            ],
            [
                "\u2581\u0627\u0644\u0628\u0634\u0631\u064a\u0629",
                -8.080976486206055
            ],
            [
                "\u0640\u0640\u0640",
                -8.024870872497559
            ],
            [
                "i",
                -8.22814655303955
            ],
            [
                "\u2581\u0639",
                -8.03361988067627
            ],
            [
                "\u2581\u0627\u0644\u0631\u0626\u064a\u0633\u064a\u0629",
                -8.089999198913574
            ],
            [
                "\u2581\u0627\u0644\u062e\u062f\u0645\u0627\u062a",
                -8.092544555664062
            ],
            [
                "\u2581appropriate",
                -8.149618148803711
            ],
            [
                "\u2581possible",
                -8.14973258972168
            ],
            [
                "\u2581\u062d\u0632\u064a\u0631\u0627\u0646",
                -8.099666595458984
            ],
            [
                "\u2581still",
                -8.09746265411377
            ],
            [
                "\u2581\u0644\u062d\u0642\u0648\u0642",
                -8.104228973388672
            ],
            [
                "\u2581\u0648\u0642\u062a",
                -8.019253730773926
            ],
            [
                "\u2581necessary",
                -8.16622257232666
            ],
            [
                "\u2581\u0646\u062d\u0646",
                -7.966280460357666
            ],
            [
                "\u258123",
                -8.740987777709961
            ],
            [
                "\u2581Economic",
                -8.169767379760742
            ],
            [
                "\u2581\u0627\u0644\u0639\u0627\u0645\u0644",
                -8.089790344238281
            ],
            [
                "\u2581\u0627\u0644\u0648\u0637\u0646\u064a",
                -8.08677864074707
            ],
            [
                "\u2581\u0627\u0644\u0645\u0624\u062a\u0645\u0631",
                -8.093317985534668
            ],
            [
                "\u2581violence",
                -8.17187786102295
            ],
            [
                "\u062d",
                -8.018916130065918
            ],
            [
                "\u2581Hey",
                -8.034045219421387
            ],
            [
                "\u2581even",
                -8.089424133300781
            ],
            [
                "\u2581Okay",
                -8.037285804748535
            ],
            [
                "\u2581\u0627\u0644\u062a\u062f\u0627\u0628\u064a\u0631",
                -8.110319137573242
            ],
            [
                "\u2581\u0627\u0633\u062a\u062e\u062f\u0627\u0645",
                -8.095782279968262
            ],
            [
                "\u2581\u0627\u0644\u0645\u0646\u0638\u0645\u0629",
                -8.106529235839844
            ],
            [
                "\u062a\u064a\u0646",
                -8.181177139282227
            ],
            [
                "\u2581Board",
                -8.177334785461426
            ],
            [
                "\u2581global",
                -8.170733451843262
            ],
            [
                "\u2581Social",
                -8.178945541381836
            ],
            [
                "\u2581technical",
                -8.16900634765625
            ],
            [
                "\u2581man",
                -8.060408592224121
            ],
            [
                "\u2581basis",
                -8.17851734161377
            ],
            [
                "\u064a\u0627",
                -8.064590454101562
            ],
            [
                "\u2581end",
                -8.139248847961426
            ],
            [
                "\u2581budget",
                -8.174787521362305
            ],
            [
                "\u2581\u0627\u0644\u0648\u0644\u0627\u064a\u0627\u062a",
                -8.109718322753906
            ],
            [
                "\u2581\u0648\u0645\u0627",
                -8.114246368408203
            ],
            [
                "\u2581\u0645\u0639\u0644\u0648\u0645\u0627\u062a",
                -8.123706817626953
            ],
            [
                "\u2581gender",
                -8.20396900177002
            ],
            [
                "\u064a\u0648\u0646\u064a\u0647",
                -8.131369590759277
            ],
            [
                "\u2581million",
                -8.160901069641113
            ],
            [
                "\u2581\u0627\u0644\u0646\u0648\u0648\u064a\u0629",
                -8.125100135803223
            ],
            [
                "\u0627\u0621",
                -8.152820587158203
            ],
            [
                "\u2581African",
                -8.19394302368164
            ],
            [
                "\u2581\u0644\u0648",
                -8.034322738647461
            ],
            [
                "\u2581\u0623\u0639\u0636\u0627\u0621",
                -8.123662948608398
            ],
            [
                "\u2581\u0627\u0644\u0623\u0646\u0634\u0637\u0629",
                -8.128939628601074
            ],
            [
                "\u2581\u0627\u062a\u0641\u0627\u0642\u064a\u0629",
                -8.144750595092773
            ],
            [
                "\u2581\u062b\u0645",
                -8.053890228271484
            ],
            [
                "\u2581\u0627\u0644\u0625\u0646\u0645\u0627\u0626\u064a\u0629",
                -8.15097713470459
            ],
            [
                "\u258124",
                -8.773335456848145
            ],
            [
                "\u2581On",
                -8.199286460876465
            ],
            [
                "\u2581\u0627\u0644\u0645\u0633\u0627\u0626\u0644",
                -8.14513874053955
            ],
            [
                "\u201d",
                -8.319720268249512
            ],
            [
                "\u2581institutions",
                -8.21721363067627
            ],
            [
                "\u2581used",
                -8.185430526733398
            ],
            [
                "\u2581\u0646\u0637\u0627\u0642",
                -8.142382621765137
            ],
            [
                "\u2581needs",
                -8.239051818847656
            ],
            [
                "\u2581while",
                -8.192712783813477
            ],
            [
                "\u2581\u0627\u0644\u0627\u062c\u062a\u0645\u0627\u0639\u064a\u0629",
                -8.170780181884766
            ],
            [
                "\u2581long",
                -8.17756462097168
            ],
            [
                "\u2581each",
                -8.212424278259277
            ],
            [
                "\u2581meetings",
                -8.26020622253418
            ],
            [
                "\u2581\u0644\u0639\u0627\u0645",
                -8.171518325805664
            ],
            [
                "\u2581\u0634\u062e\u0635",
                -8.07895278930664
            ],
            [
                "\u2581provisions",
                -8.24710464477539
            ],
            [
                "\u2581\u0625\u062c\u0631\u0627\u0621",
                -8.16868782043457
            ],
            [
                "\u2581\u0639\u0646\u062f",
                -8.146559715270996
            ],
            [
                "\u2581\u0627\u0644\u064a\u0648\u0645",
                -8.091209411621094
            ],
            [
                "\u2581cases",
                -8.260092735290527
            ],
            [
                "\u2581account",
                -8.239642143249512
            ],
            [
                "\u2581\u0623\u0633\u0627\u0633",
                -8.15139389038086
            ],
            [
                "\u2581\u0627\u0644\u0646\u0633\u0627\u0621",
                -8.182053565979004
            ],
            [
                "\u2581B",
                -8.36790657043457
            ],
            [
                "\u2581\u0625\u0646\u0634\u0627\u0621",
                -8.183172225952148
            ],
            [
                "\u2581general",
                -8.254584312438965
            ],
            [
                "\u2581consideration",
                -8.252240180969238
            ],
            [
                "\u2581July",
                -8.246060371398926
            ],
            [
                "\u2581groups",
                -8.265777587890625
            ],
            [
                "\u2581\u0631\u0642\u0645",
                -8.170988082885742
            ],
            [
                "\u2581\u0648\u062c\u0648\u062f",
                -8.176340103149414
            ],
            [
                "\u2581\u0627\u0646\u0627",
                -8.083410263061523
            ],
            [
                "\u2581didn",
                -8.11790657043457
            ],
            [
                "\u2581\u0645\u0645\u0627",
                -8.173303604125977
            ],
            [
                "\u2581too",
                -8.165393829345703
            ],
            [
                "\u2581give",
                -8.181403160095215
            ],
            [
                "\u2581\u0627\u0644\u0623\u0645\u0627\u0646\u0629",
                -8.197172164916992
            ],
            [
                "\u2581upon",
                -8.242986679077148
            ],
            [
                "\u2581National",
                -8.270978927612305
            ],
            [
                "\u2581\u0645\u062c\u0645\u0648\u0639\u0629",
                -8.186880111694336
            ],
            [
                "\u258128",
                -8.862214088439941
            ],
            [
                "\u2581\u0627\u0644\u0633\u0644\u0627\u062d",
                -8.187256813049316
            ],
            [
                "\u2581\u062e\u0627\u0635\u0629",
                -8.185956954956055
            ],
            [
                "\u2581\u062a\u062f\u0627\u0628\u064a\u0631",
                -8.209760665893555
            ],
            [
                "\u2581really",
                -8.144636154174805
            ],
            [
                "\u2581\u0644\u0644\u0623\u0645\u0645",
                -8.19725513458252
            ],
            [
                "\u2581\u062a\u0642\u062f\u0645",
                -8.191023826599121
            ],
            [
                "\u2581\u0642\u0627\u0646\u0648\u0646",
                -8.190474510192871
            ],
            [
                "\u2581\u0627\u0644\u0645\u064a\u0632\u0627\u0646\u064a\u0629",
                -8.205273628234863
            ],
            [
                "\u2581high",
                -8.262972831726074
            ],
            [
                "\u2581\u0627\u0644\u0645\u062d\u0644\u064a\u0629",
                -8.215068817138672
            ],
            [
                "\u2581policies",
                -8.28168773651123
            ],
            [
                "\u2581\u0627\u0644\u062c\u0647\u0648\u062f",
                -8.214198112487793
            ],
            [
                "\u2581something",
                -8.15082836151123
            ],
            [
                "\u2581\u062a\u0645\u0648\u0632",
                -8.2221097946167
            ],
            [
                "\u2581::",
                -8.788865089416504
            ],
            [
                "\u25812005",
                -8.864922523498535
            ],
            [
                "\u2581\u0627\u0644\u0645\u0648\u0638\u0641\u064a\u0646",
                -8.231475830078125
            ],
            [
                "\u2581\u0627\u0644\u0648\u0627\u0631\u062f\u0629",
                -8.22167682647705
            ],
            [
                "\u2581\u062c\u0627\u0646\u0628",
                -8.195169448852539
            ],
            [
                "\u2581New",
                -8.230865478515625
            ],
            [
                "\u2581concerned",
                -8.29505729675293
            ],
            [
                "\u2581Yes",
                -8.158369064331055
            ],
            [
                "\u2581\u0623\u0646\u0634\u0637\u0629",
                -8.230307579040527
            ],
            [
                "\u2581\u0644\u0623\u0646",
                -8.154842376708984
            ],
            [
                "\u2581area",
                -8.281265258789062
            ],
            [
                "\u2581much",
                -8.21115779876709
            ],
            [
                "\u2581\u0644\u0644\u062c\u0646\u0629",
                -8.232047080993652
            ],
            [
                "\u2581Working",
                -8.313587188720703
            ],
            [
                "\u2581include",
                -8.295303344726562
            ],
            [
                "\u2581delegation",
                -8.306714057922363
            ],
            [
                "\u2581\u0628\u0635\u0648\u0631\u0629",
                -8.22565746307373
            ],
            [
                "\u2581May",
                -8.285360336303711
            ],
            [
                "\u064a\u0648\u0644\u064a\u0647",
                -8.246862411499023
            ],
            [
                "\u2581\u0627\u0644\u062a\u0639\u0644\u064a\u0645",
                -8.245241165161133
            ],
            [
                "\u2581\u0627\u0644\u0642\u0627\u0626\u0645\u0629",
                -8.246148109436035
            ],
            [
                "\u2581local",
                -8.318816184997559
            ],
            [
                "\u2581data",
                -8.31289291381836
            ],
            [
                "\u2581\u0648\u064a\u0646\u0628\u063a\u064a",
                -8.252141952514648
            ],
            [
                "\u2581\u0627\u0644\u0623\u0634\u062e\u0627\u0635",
                -8.266396522521973
            ],
            [
                "\u2581issue",
                -8.320009231567383
            ],
            [
                "\u064d",
                -8.17385482788086
            ],
            [
                "\u2581trade",
                -8.320886611938477
            ],
            [
                "\u2581\u0627\u0644\u0639\u0646\u0641",
                -8.2771577835083
            ],
            [
                "\u258126",
                -8.888197898864746
            ],
            [
                "I",
                -8.429122924804688
            ],
            [
                "\u2581available",
                -8.32666015625
            ],
            [
                "\u258127",
                -8.919504165649414
            ],
            [
                "\u2581Why",
                -8.202107429504395
            ],
            [
                "\u2581tell",
                -8.185006141662598
            ],
            [
                "\u2581child",
                -8.313920974731445
            ],
            [
                "\u2581\u062d\u0643\u0648\u0645\u0629",
                -8.256534576416016
            ],
            [
                "\u2581\u0648\u0627\u0644\u062a\u0646\u0645\u064a\u0629",
                -8.245530128479004
            ],
            [
                "\u2581region",
                -8.332480430603027
            ],
            [
                "\u2581\u062f\u0639\u0645",
                -8.263765335083008
            ],
            [
                "\u2581does",
                -8.289778709411621
            ],
            [
                "\u2581proposed",
                -8.33933162689209
            ],
            [
                "\u2581\u062e\u062f\u0645\u0627\u062a",
                -8.281905174255371
            ],
            [
                "\u2581Court",
                -8.333473205566406
            ],
            [
                "\u2581\u064a\u0648\u0645",
                -8.204500198364258
            ],
            [
                "\u2581\u0641\u0642\u062f",
                -8.236152648925781
            ],
            [
                "\u2581considered",
                -8.347390174865723
            ],
            [
                "\u2581plan",
                -8.316468238830566
            ],
            [
                "\u2581\u0648\u0627\u062d\u062f",
                -8.187736511230469
            ],
            [
                "\u2581\u0625",
                -8.267483711242676
            ],
            [
                "\u2581off",
                -8.254652976989746
            ],
            [
                "\u2581\u0623\u0641\u0636\u0644",
                -8.227384567260742
            ],
            [
                "\u2581little",
                -8.230212211608887
            ],
            [
                "\u2581never",
                -8.232487678527832
            ],
            [
                "\u2581\u0627\u0644\u0623\u0648\u0644\u0649",
                -8.265071868896484
            ],
            [
                "\u2581Secretariat",
                -8.3574857711792
            ],
            [
                "\u2581\u062d\u0627\u0644\u0627\u062a",
                -8.291467666625977
            ],
            [
                "\u2581\u201d",
                -8.735560417175293
            ],
            [
                "\u2581group",
                -8.349563598632812
            ],
            [
                "\u2581\u0625\u0644\u064a\u0647\u0627",
                -8.283862113952637
            ],
            [
                "\u2581\u0627\u062a\u062e\u0627\u0630",
                -8.280759811401367
            ],
            [
                "\u2581increase",
                -8.349347114562988
            ],
            [
                "\u2581humanitarian",
                -8.359170913696289
            ],
            [
                "\u2581family",
                -8.321643829345703
            ],
            [
                "\u2581\u0627\u0644\u062c\u062f\u064a\u062f\u0629",
                -8.271448135375977
            ],
            [
                "\u2581mean",
                -8.215543746948242
            ],
            [
                "\u2581D",
                -8.45435905456543
            ],
            [
                "\u2581\u0627\u0644\u0628\u064a\u0627\u0646\u0627\u062a",
                -8.313894271850586
            ],
            [
                "\u2581submitted",
                -8.364241600036621
            ],
            [
                "\u2581European",
                -8.357423782348633
            ],
            [
                "Add",
                -8.810168266296387
            ],
            [
                "\u2581based",
                -8.3645658493042
            ],
            [
                "\u2581framework",
                -8.36057186126709
            ],
            [
                "\u2581September",
                -8.370553970336914
            ],
            [
                "\u2581last",
                -8.29964542388916
            ],
            [
                "\u2581\u0627\u0644\u062a\u0645\u064a\u064a\u0632",
                -8.316303253173828
            ],
            [
                "\u2581noted",
                -8.381714820861816
            ],
            [
                "\u2581importance",
                -8.37304973602295
            ],
            [
                "\u2581Fund",
                -8.365945816040039
            ],
            [
                "\u2581\u0627\u0644\u0645\u0646\u0637\u0642\u0629",
                -8.294073104858398
            ],
            [
                "\u2581\u0627\u0644\u0645\u0631\u0641\u0642",
                -8.280657768249512
            ],
            [
                "g",
                -8.577361106872559
            ],
            [
                "\u2581\u0627\u0644\u0642\u0627\u0646\u0648\u0646\u064a\u0629",
                -8.30997371673584
            ],
            [
                "\u2581particularly",
                -8.382488250732422
            ],
            [
                "\u25812000",
                -8.899612426757812
            ],
            [
                "\u2581\u0627\u0644\u062d\u0635\u0648\u0644",
                -8.286964416503906
            ],
            [
                "\u2581bodies",
                -8.379165649414062
            ],
            [
                "\u2581My",
                -8.282737731933594
            ],
            [
                "\u2581\u0628\u0644",
                -8.267057418823242
            ],
            [
                "\u2581\u0627\u0644\u0633\u0627\u0639\u0629",
                -8.302931785583496
            ],
            [
                "\u2581\u0627\u0644\u062d\u0642",
                -8.291878700256348
            ],
            [
                "\u2581November",
                -8.372264862060547
            ],
            [
                "\u2581\u0648\u0628",
                -8.362313270568848
            ],
            [
                "\u2581\u0623\u0647\u0645\u064a\u0629",
                -8.315712928771973
            ],
            [
                "\u2581means",
                -8.369929313659668
            ],
            [
                "\u2581:",
                -8.412940979003906
            ],
            [
                "\u2581better",
                -8.312824249267578
            ],
            [
                "\u2581\u0627\u0644\u0645\u0633\u062a\u062f\u0627\u0645\u0629",
                -8.320191383361816
            ],
            [
                "\u2581Women",
                -8.398347854614258
            ],
            [
                "\u2581October",
                -8.390528678894043
            ],
            [
                "\u2581\u0641\u0631\u064a\u0642",
                -8.300481796264648
            ],
            [
                "\u2581\u0645\u0644\u064a\u0648\u0646",
                -8.302509307861328
            ],
            [
                "\u2581resolutions",
                -8.442859649658203
            ],
            [
                "\u2581\u062a\u0648\u0641\u064a\u0631",
                -8.327966690063477
            ],
            [
                "\u2581\u0627\u0644\u0635\u062f\u062f",
                -8.332893371582031
            ],
            [
                "\u2581\u062a\u0642\u0648\u0645",
                -8.297968864440918
            ],
            [
                "\u2581\u0648\u0643\u0630\u0644\u0643",
                -8.326476097106934
            ],
            [
                "\u2581God",
                -8.298863410949707
            ],
            [
                "\u2581\u0641\u0649",
                -8.197062492370605
            ],
            [
                "\u2581conflict",
                -8.38772964477539
            ],
            [
                "\u2581\u0623\u064a\u0644\u0648\u0644",
                -8.32058334350586
            ],
            [
                "\u2581address",
                -8.400568962097168
            ],
            [
                "\u2581\u0644\u0645\u0627\u0630\u0627",
                -8.204177856445312
            ],
            [
                "\u2581day",
                -8.305938720703125
            ],
            [
                "\u2581future",
                -8.390583992004395
            ],
            [
                "\u2581society",
                -8.405956268310547
            ],
            [
                "\u2581\u0628\u0633\u0628\u0628",
                -8.303494453430176
            ],
            [
                "\u2581\u0628\u0644\u062f\u0627\u0646",
                -8.324797630310059
            ],
            [
                "\u2581\u0627\u0644\u0645\u062a\u0635\u0644\u0629",
                -8.330432891845703
            ],
            [
                "\u258129",
                -8.983002662658691
            ],
            [
                "\u2581Action",
                -8.398828506469727
            ],
            [
                "\u2581\u0627\u0644\u0628\u0639\u062b\u0629",
                -8.344305992126465
            ],
            [
                "\u2581promote",
                -8.401484489440918
            ],
            [
                "\u2581developed",
                -8.406394004821777
            ],
            [
                "or",
                -8.59482479095459
            ],
            [
                "\u2581field",
                -8.389204025268555
            ],
            [
                "in",
                -8.571372985839844
            ],
            [
                "\u2581Come",
                -8.258302688598633
            ],
            [
                "\u0645\u0627\u0631\u0633",
                -8.34348201751709
            ],
            [
                "\u2581document",
                -8.395059585571289
            ],
            [
                "\u2581Let",
                -8.289794921875
            ],
            [
                "\u2581own",
                -8.348833084106445
            ],
            [
                "\u2581military",
                -8.399174690246582
            ],
            [
                "\u2581--",
                -8.67389965057373
            ],
            [
                "\u2581note",
                -8.408425331115723
            ],
            [
                "\u2581am",
                -8.399588584899902
            ],
            [
                "\u25812006",
                -8.94743537902832
            ],
            [
                "\u2581participation",
                -8.421874046325684
            ],
            [
                "\u2581\u0628\u0630\u0644\u0643",
                -8.28916072845459
            ],
            [
                "\u2581\u0644\u0644\u0645",
                -8.548401832580566
            ],
            [
                "\u2581let",
                -8.290816307067871
            ],
            [
                "\u2581doing",
                -8.314872741699219
            ],
            [
                "\u2581\u0627\u0644\u0633\u064a\u0627\u0633\u0627\u062a",
                -8.365140914916992
            ],
            [
                "\u2581might",
                -8.359002113342285
            ],
            [
                "\u25812002",
                -8.957184791564941
            ],
            [
                "\u25812004",
                -8.953832626342773
            ],
            [
                "\u2581\u0623\u062b\u0646\u0627\u0621",
                -8.352472305297852
            ],
            [
                "\u2581specific",
                -8.433653831481934
            ],
            [
                "\u2581required",
                -8.42144775390625
            ],
            [
                "\u2581look",
                -8.300413131713867
            ],
            [
                "\u2581\u0627\u0644\u062c\u0644\u0633\u0629",
                -8.347497940063477
            ],
            [
                "\u0633\u0628\u062a\u0645\u0628\u0631",
                -8.345389366149902
            ],
            [
                "\u2581\u0627\u0644\u0641\u0631\u0639\u064a\u0629",
                -8.350749015808105
            ],
            [
                "\u2581Union",
                -8.420654296875
            ],
            [
                "\u2581\u062c\u062f\u064a\u062f\u0629",
                -8.344429016113281
            ],
            [
                "\u2581\u0625\u0639\u0627\u062f\u0629",
                -8.350422859191895
            ],
            [
                "\u0641\u064a",
                -8.348433494567871
            ],
            [
                "\u2581Article",
                -8.436441421508789
            ],
            [
                "\u2581\u0627\u0644\u062a",
                -8.501286506652832
            ],
            [
                "\u0646\u0648\u0641\u0645\u0628\u0631",
                -8.357028007507324
            ],
            [
                "\u2581\u0627\u0644\u062b\u0627\u0646\u064a\u0629",
                -8.366363525390625
            ],
            [
                "\u2581Department",
                -8.443068504333496
            ],
            [
                "\u2581call",
                -8.339790344238281
            ],
            [
                "\u2581sustainable",
                -8.434406280517578
            ],
            [
                "\u2581\u0627\u0646\u0647",
                -8.249185562133789
            ],
            [
                "\u2581\u0627\u0644\u0644\u0627\u0632\u0645\u0629",
                -8.369194030761719
            ],
            [
                "\u2581weapons",
                -8.448445320129395
            ],
            [
                "\u2581levels",
                -8.468297958374023
            ],
            [
                "\u2581agencies",
                -8.448705673217773
            ],
            [
                "\u2581\u0641\u062a\u0631\u0629",
                -8.366069793701172
            ],
            [
                ".1",
                -9.049522399902344
            ],
            [
                "\u2581\u0627\u0644\u0633\u064a\u0627\u0633\u064a\u0629",
                -8.38265609741211
            ],
            [
                "\u2581\u064a\u0644\u064a",
                -8.382932662963867
            ],
            [
                "\u2581\u0627\u0644\u0625\u062c\u0631\u0627\u0621\u0627\u062a",
                -8.38948917388916
            ],
            [
                "\u2581\u0627\u0644\u0645\u0648\u0627\u062f",
                -8.395484924316406
            ],
            [
                "\u2581poverty",
                -8.458149909973145
            ],
            [
                "\u2581\u0645\u0646\u0637\u0642\u0629",
                -8.370932579040527
            ],
            [
                "\u2581Mission",
                -8.438161849975586
            ],
            [
                "\u25812003",
                -8.98122501373291
            ],
            [
                "\u2581police",
                -8.430648803710938
            ],
            [
                "\u2581control",
                -8.431870460510254
            ],
            [
                "\u2581question",
                -8.409687042236328
            ],
            [
                "\u2581current",
                -8.447443008422852
            ],
            [
                "\u2581Do",
                -8.344986915588379
            ],
            [
                "\u2581\u0627\u0644\u062f\u064a\u0645\u0642\u0631\u0627\u0637\u064a\u0629",
                -8.385966300964355
            ],
            [
                "\u2581Governments",
                -8.48792552947998
            ],
            [
                "\u2581care",
                -8.390582084655762
            ],
            [
                "\u2581sector",
                -8.447481155395508
            ],
            [
                "\u2581\u0627\u0644\u0645\u062a\u0639\u0644\u0642",
                -8.391018867492676
            ],
            [
                "\u2581\u0627\u0644\u0625\u0646\u0645\u0627\u0626\u064a",
                -8.380051612854004
            ],
            [
                "up",
                -8.471977233886719
            ],
            [
                "\u2581\u0633\u0646",
                -8.312884330749512
            ],
            [
                "\u2581\u0627\u0644\u0628\u0644\u062f",
                -8.378934860229492
            ],
            [
                "\u2581given",
                -8.445060729980469
            ],
            [
                "\u0636",
                -8.420857429504395
            ],
            [
                "\u2581\u0627\u0644\u0645\u0633\u062a\u0648\u0649",
                -8.393912315368652
            ],
            [
                "\u2581\u062d\u0648\u0644",
                -8.321088790893555
            ],
            [
                "\u2581\u0645\u0633\u0623\u0644\u0629",
                -8.375978469848633
            ],
            [
                "\u2581requested",
                -8.462569236755371
            ],
            [
                "\u2581\u0627\u0644\u0625\u0646\u0633\u0627\u0646\u064a\u0629",
                -8.402857780456543
            ],
            [
                "\u2581operations",
                -8.463473320007324
            ],
            [
                "\u2581requirements",
                -8.466981887817383
            ],
            [
                "\u2581various",
                -8.468688011169434
            ],
            [
                "\u2581\u0627\u0644\u0634\u0631\u0637\u0629",
                -8.37929916381836
            ],
            [
                "\u2581\u0627\u0644\u0633\u0643\u0627\u0646",
                -8.383111000061035
            ],
            [
                "\u2581\u0627\u0644\u062a\u062c\u0627\u0631\u0629",
                -8.398781776428223
            ],
            [
                "\u2581\u062f\u0648\u0631\u062a\u0647\u0627",
                -8.383143424987793
            ],
            [
                "\u2581find",
                -8.348665237426758
            ],
            [
                "\u2581March",
                -8.464917182922363
            ],
            [
                "\u062a\u0643",
                -8.357341766357422
            ],
            [
                "\u2581\u0633",
                -8.17723274230957
            ],
            [
                "\u2581\u0645\u0631\u0629",
                -8.329066276550293
            ],
            [
                "\u2581\u0639\u0644\u064a",
                -8.266911506652832
            ],
            [
                "\u2581\u062d\u0641\u0638",
                -8.403132438659668
            ],
            [
                "\u2581authorities",
                -8.475634574890137
            ],
            [
                "\u2581project",
                -8.468925476074219
            ],
            [
                "\u2581\u0627\u0644\u062d\u0627\u0644\u0629",
                -8.402766227722168
            ],
            [
                "\u2581change",
                -8.43671703338623
            ],
            [
                "\u2581second",
                -8.440073013305664
            ],
            [
                "\u2581\u062a\u062d\u062a",
                -8.36841869354248
            ],
            [
                "\u2581Declaration",
                -8.48967170715332
            ],
            [
                "\u2581\u0648\u0645\u0639",
                -8.431440353393555
            ],
            [
                "\u2581\u0627\u0644\u0645\u0643\u062a\u0628",
                -8.412135124206543
            ],
            [
                "\u0623\u0643\u062a\u0648\u0628\u0631",
                -8.42201042175293
            ],
            [
                "\u2581\u0627\u0646\u062a",
                -8.31102466583252
            ],
            [
                "\u25812007",
                -9.015961647033691
            ],
            [
                "\u2581\u0627\u0644\u0645\u0646\u0627\u0637\u0642",
                -8.437566757202148
            ],
            [
                "\u2581Law",
                -8.475818634033203
            ],
            [
                "\u2581\u062d\u062f",
                -8.379114151000977
            ],
            [
                "\u2581\u062c\u062f\u064a\u062f",
                -8.381802558898926
            ],
            [
                "\u2581civil",
                -8.496003150939941
            ],
            [
                "\u2581\u062a\u062d\u0633\u064a\u0646",
                -8.430941581726074
            ],
            [
                "\u2581context",
                -8.486227035522461
            ],
            [
                "\u2581\u0642",
                -8.383604049682617
            ],
            [
                "\u2581\u2014",
                -8.67642879486084
            ],
            [
                "\u2581contained",
                -8.5015287399292
            ],
            [
                "\u2581p",
                -8.563194274902344
            ],
            [
                "\u2581\u0627\u0644\u0641\u0642\u0631",
                -8.418463706970215
            ],
            [
                "\u2581put",
                -8.403597831726074
            ],
            [
                "\u2581\u0627\u0644\u062a\u0627\u0644\u064a\u0629",
                -8.42707633972168
            ],
            [
                "\u2581\u0643\u0628\u064a\u0631",
                -8.377267837524414
            ],
            [
                "\u2581\u0631\u0628\u0645\u0627",
                -8.306218147277832
            ],
            [
                "\u2581\u0625\u0646\u0647\u0627",
                -8.336847305297852
            ],
            [
                "\u2581additional",
                -8.508687019348145
            ],
            [
                "\u2581why",
                -8.377394676208496
            ],
            [
                "\u2581\u0627\u0644\u0644\u0647",
                -8.277390480041504
            ],
            [
                "\u2581Report",
                -8.516009330749512
            ],
            [
                "\u2581attention",
                -8.503911972045898
            ],
            [
                "\u25812008",
                -9.070488929748535
            ],
            [
                "\u2581addition",
                -8.508038520812988
            ],
            [
                "o",
                -8.682802200317383
            ],
            [
                "\u2581\u0645\u0643\u0627\u0641\u062d\u0629",
                -8.430190086364746
            ],
            [
                "\u2581\u0627\u0644\u0627\u062c\u062a\u0645\u0627\u0639",
                -8.429289817810059
            ],
            [
                "\u2581\u064a\u062a\u0645",
                -8.405896186828613
            ],
            [
                "\u25812001",
                -9.031299591064453
            ],
            [
                "\u2581\u0648\u0627\u062d\u062f\u0629",
                -8.376848220825195
            ],
            [
                "\u2581\u0622\u0630\u0627\u0631",
                -8.43656063079834
            ],
            [
                "\u2581\u0627\u0644\u0645\u0634\u062a\u0631\u0643\u0629",
                -8.449429512023926
            ],
            [
                "\u2581\u0639\u0642\u062f",
                -8.417973518371582
            ],
            [
                "\u2581representatives",
                -8.527793884277344
            ],
            [
                "\u2581\u0628\u0631\u0627\u0645\u062c",
                -8.442842483520508
            ],
            [
                "\u2581\u0627\u0644\u0637\u0641\u0644",
                -8.436713218688965
            ],
            [
                "\u2581agreed",
                -8.517406463623047
            ],
            [
                "\u2581Rapporteur",
                -8.522032737731934
            ],
            [
                "\u2581\u0627\u0644\u0623\u0647\u062f\u0627\u0641",
                -8.460226058959961
            ],
            [
                "\u2581April",
                -8.512927055358887
            ],
            [
                "\u2581\u062a\u062d\u062f\u064a\u062f",
                -8.43781852722168
            ],
            [
                "\u2581\u0627\u0644\u0631\u0633\u0645\u064a\u0629",
                -8.447154998779297
            ],
            [
                "\u2581South",
                -8.486129760742188
            ],
            [
                "\u2581above",
                -8.524828910827637
            ],
            [
                "\u2581representative",
                -8.524267196655273
            ],
            [
                "\u2581However",
                -8.531911849975586
            ],
            [
                "\u2581population",
                -8.496418952941895
            ],
            [
                "\u2581\u0627\u0644\u062a\u0627\u0628\u0639\u0629",
                -8.459664344787598
            ],
            [
                "\u2581taking",
                -8.499454498291016
            ],
            [
                "\u2581\u0627\u0644\u0633\u0627\u0628\u0642\u0629",
                -8.449466705322266
            ],
            [
                "\u2581again",
                -8.441219329833984
            ],
            [
                "\u2581\u062d\u0642",
                -8.396686553955078
            ],
            [
                "\u2581With",
                -8.498477935791016
            ],
            [
                "\u2581towards",
                -8.518289566040039
            ],
            [
                "\u2581\u0633\u0646\u0629",
                -8.43165111541748
            ],
            [
                "\u2581\u062e\u0637\u0629",
                -8.4661226272583
            ],
            [
                "\u2581Protocol",
                -8.526209831237793
            ],
            [
                "\u2581High",
                -8.529048919677734
            ],
            [
                "\u2581mandate",
                -8.519225120544434
            ],
            [
                "\u2581\u0645\u0633\u062a\u0648\u0649",
                -8.462553024291992
            ],
            [
                "\u2581Don",
                -8.401484489440918
            ],
            [
                "\u2581concern",
                -8.530156135559082
            ],
            [
                "\u2581\u062f\u0627\u062e\u0644",
                -8.437379837036133
            ],
            [
                "\u2581\u0640",
                -8.362524032592773
            ],
            [
                "\u2581\u0623\u064a\u0627\u0631",
                -8.475391387939453
            ],
            [
                "\u0647\u0645\u0627",
                -8.47072982788086
            ],
            [
                "\u2581thing",
                -8.400311470031738
            ],
            [
                "\u2581conditions",
                -8.548026084899902
            ],
            [
                "\u2581\u0627\u0644\u0639\u0645\u0644\u064a\u0629",
                -8.485033988952637
            ],
            [
                "\u2581\u0639\u0644\u064a\u0643",
                -8.33625316619873
            ],
            [
                "\u2581concerning",
                -8.549031257629395
            ],
            [
                "\u2581\u0644\u0630\u0644\u0643",
                -8.429004669189453
            ],
            [
                "\u2581major",
                -8.552406311035156
            ],
            [
                "\u2581request",
                -8.537127494812012
            ],
            [
                "\u2581men",
                -8.529341697692871
            ],
            [
                "\u2581continued",
                -8.562430381774902
            ],
            [
                "\u2581\u0627\u0644\u0625\u0631\u0647\u0627\u0628",
                -8.465310096740723
            ],
            [
                "\u062b",
                -8.455992698669434
            ],
            [
                "\u2581already",
                -8.5044584274292
            ],
            [
                "\u2581\u0627\u0644\u0645\u0642\u062f\u0645\u0629",
                -8.495710372924805
            ],
            [
                "\u2581Affairs",
                -8.566882133483887
            ],
            [
                "\u2581\u0646\u064a\u0633\u0627\u0646",
                -8.49917221069336
            ],
            [
                "2",
                -9.057392120361328
            ],
            [
                "\u2581\u062d\u0642\u0627",
                -8.378453254699707
            ],
            [
                "\u2581different",
                -8.535990715026855
            ],
            [
                "\u2581called",
                -8.514823913574219
            ],
            [
                "\u2581\u0642\u0627\u0644",
                -8.418964385986328
            ],
            [
                "\u2581\u062d\u0645\u0627\u064a\u0629",
                -8.504205703735352
            ],
            [
                "\u2581approach",
                -8.577299118041992
            ],
            [
                "\u2581\u0637\u0644\u0628",
                -8.463440895080566
            ],
            [
                "\u2581statement",
                -8.562804222106934
            ],
            [
                "es",
                -8.70480728149414
            ],
            [
                ");",
                -8.584785461425781
            ],
            [
                "\u2581\u0623\u0644\u0641",
                -8.464274406433105
            ],
            [
                "CN",
                -9.203855514526367
            ],
            [
                "\u2581force",
                -8.553390502929688
            ],
            [
                "\u2581\u0634\u0643\u0631\u0627",
                -8.366486549377441
            ],
            [
                "\u2581member",
                -8.571226119995117
            ],
            [
                "\u2581private",
                -8.578608512878418
            ],
            [
                "\u2581establishment",
                -8.572158813476562
            ],
            [
                "\u2581consider",
                -8.563502311706543
            ],
            [
                "\u2581\u0633\u0623",
                -8.39462661743164
            ],
            [
                "\u2581\u0627\u0644\u0648\u062b\u064a\u0642\u0629",
                -8.501825332641602
            ],
            [
                "\u2581status",
                -8.57429027557373
            ],
            [
                "\u2581projects",
                -8.597016334533691
            ],
            [
                "\u2581\u0648\u0627\u0644\u0627\u062c\u062a\u0645\u0627\u0639\u064a\u0629",
                -8.514751434326172
            ],
            [
                "\u2581January",
                -8.581671714782715
            ],
            [
                "\u2581rules",
                -8.591245651245117
            ],
            [
                "\u2581impact",
                -8.571586608886719
            ],
            [
                "\u2581another",
                -8.535177230834961
            ],
            [
                "\u2581person",
                -8.5341796875
            ],
            [
                "\u2581\u0644\u0647\u0630\u0627",
                -8.466196060180664
            ],
            [
                "\u2581\u0627\u0644\u0645\u0634\u0631\u0648\u0639",
                -8.5060396194458
            ],
            [
                "\u2581organization",
                -8.5694580078125
            ],
            [
                "\u2581\u0625\u062c\u0631\u0627\u0621\u0627\u062a",
                -8.535499572753906
            ],
            [
                "\u2581together",
                -8.542729377746582
            ],
            [
                "\u2581\u0627\u0644\u0623\u0648\u0631\u0648\u0628\u064a",
                -8.509109497070312
            ],
            [
                "\u2581relating",
                -8.58846378326416
            ],
            [
                "\u0645\u0627\u064a\u0648",
                -8.525534629821777
            ],
            [
                "\u064c",
                -8.398927688598633
            ],
            [
                "\u2581fact",
                -8.566993713378906
            ],
            [
                "\u2581\u064a\u0628\u062f\u0648",
                -8.418307304382324
            ],
            [
                "\u2581\u266a",
                -8.804780960083008
            ],
            [
                "\u2581\u0633\u0646\u0648\u0627\u062a",
                -8.486688613891602
            ],
            [
                "\u2581\u0625\u0644\u064a\u0647",
                -8.490818977355957
            ],
            [
                "\u2581\u062f\u0648\u0644\u0629",
                -8.523748397827148
            ],
            [
                "\u2581\u0633\u0628\u064a\u0644",
                -8.516434669494629
            ],
            [
                "\u2581every",
                -8.538272857666016
            ],
            [
                "\u2581done",
                -8.525490760803223
            ],
            [
                "\u2581\u0627\u0644\u062d\u0643\u0648\u0645\u0627\u062a",
                -8.519928932189941
            ],
            [
                "\u2581\u0645\u0631\u0643\u0632",
                -8.508724212646484
            ],
            [
                "\u2019",
                -8.598058700561523
            ],
            [
                "\u2581whether",
                -8.597552299499512
            ],
            [
                "\u2581\u0648\u0644\u0645",
                -8.502902030944824
            ],
            [
                "\u2581best",
                -8.553471565246582
            ],
            [
                "\u2581found",
                -8.542208671569824
            ],
            [
                "\u2581\u0648\u0647\u0630\u0627",
                -8.469913482666016
            ],
            [
                "\u2581total",
                -8.60679817199707
            ],
            [
                "\u2581\u0623\u0644\u0627",
                -8.483336448669434
            ],
            [
                "\u2581inter",
                -8.606120109558105
            ],
            [
                "\u2581\u0643\u0628\u064a\u0631\u0629",
                -8.514344215393066
            ],
            [
                "\u2581okay",
                -8.478706359863281
            ],
            [
                "\u2581Now",
                -8.479629516601562
            ],
            [
                "\u2581II",
                -8.635997772216797
            ],
            [
                "\u2581\u0627\u0644\u0628\u0631\u0627\u0645\u062c",
                -8.528260231018066
            ],
            [
                "\u2581great",
                -8.541180610656738
            ],
            [
                "f",
                -8.811639785766602
            ],
            [
                "\u2581Palestinian",
                -8.60936450958252
            ],
            [
                "\u2581\u0623\u0639\u0631\u0641",
                -8.397107124328613
            ],
            [
                "\u2581\u0623\u0642\u0644",
                -8.52674674987793
            ],
            [
                "\u2581took",
                -8.575084686279297
            ],
            [
                "\u0627\u0646\u0638\u0631",
                -8.542858123779297
            ],
            [
                "\u2581\u0627\u0644\u0635\u062d\u0629",
                -8.561566352844238
            ],
            [
                "\u2581\u0644\u062a",
                -8.618142127990723
            ],
            [
                "\u2581addressed",
                -8.619964599609375
            ],
            [
                "\u2581\u0623\u0646\u0643",
                -8.50715446472168
            ],
            [
                "see",
                -8.625496864318848
            ],
            [
                "\u2581justice",
                -8.614609718322754
            ],
            [
                "\u2581\u0648\u0627\u0644\u0645\u0646\u0638\u0645\u0627\u062a",
                -8.561541557312012
            ],
            [
                "\u2581\u0627\u0644\u0646\u0627\u0633",
                -8.458523750305176
            ],
            [
                "\u2581love",
                -8.486438751220703
            ],
            [
                "\u2581received",
                -8.630478858947754
            ],
            [
                "\u2581\u0627\u0644\u0642\u064a\u0627\u0645",
                -8.523138046264648
            ],
            [
                "\u0637",
                -8.503766059875488
            ],
            [
                "\u2581\u062e\u0627\u0635",
                -8.525341033935547
            ],
            [
                "\u0623\u0628\u0631\u064a\u0644",
                -8.571330070495605
            ],
            [
                "\u2581\u0623\u0631\u064a\u062f",
                -8.431844711303711
            ],
            [
                "\u2581\u0648\u0627\u0644\u062a\u064a",
                -8.552743911743164
            ],
            [
                "\u2581entitled",
                -8.640908241271973
            ],
            [
                "\u258150",
                -9.191898345947266
            ],
            [
                "\u2581provision",
                -8.616447448730469
            ],
            [
                "\u2581These",
                -8.617465019226074
            ],
            [
                "\u2581\u0623\u0643\u0628\u0631",
                -8.541563034057617
            ],
            [
                "\u2581comprehensive",
                -8.640223503112793
            ],
            [
                "\u2581\u0644\u0645\u0627",
                -8.584028244018555
            ],
            [
                "\u2581\u0627\u0644\u0645\u0624\u0633\u0633\u0627\u062a",
                -8.56524658203125
            ],
            [
                "\u2581\u0627\u0633\u062a\u0639\u0631\u0627\u0636",
                -8.572710037231445
            ],
            [
                "\u2581discrimination",
                -8.640680313110352
            ],
            [
                "\u2581\u0646\u0632\u0639",
                -8.563265800476074
            ],
            [
                "\u064a\u0646\u0627\u064a\u0631",
                -8.580310821533203
            ],
            [
                "\u2581therefore",
                -8.655047416687012
            ],
            [
                "\u2581water",
                -8.595564842224121
            ],
            [
                "\u2581\u0623\u0645\u0631",
                -8.506755828857422
            ],
            [
                "\u2581annex",
                -8.637999534606934
            ],
            [
                "\u2581around",
                -8.566168785095215
            ],
            [
                "\u2581result",
                -8.633991241455078
            ],
            [
                "\u2581expressed",
                -8.647869110107422
            ],
            [
                "\u2581\u0627\u0644\u0645\u0633\u0627\u0648\u0627\u0629",
                -8.592879295349121
            ],
            [
                "\u2581\u0627\u0644\u062a\u0642\u0627\u0631\u064a\u0631",
                -8.592340469360352
            ],
            [
                "\u2581\u0647",
                -8.47867488861084
            ],
            [
                "\u2581coordination",
                -8.646379470825195
            ],
            [
                "\u2581responsibility",
                -8.646502494812012
            ],
            [
                "\u2581legislation",
                -8.656941413879395
            ],
            [
                "\u2581\u0627\u0644\u0627\u0633\u062a\u0634\u0627\u0631\u064a\u0629",
                -8.583455085754395
            ],
            [
                "\u2581home",
                -8.538250923156738
            ],
            [
                "\u2581\u0627\u0644\u0635\u0639\u064a\u062f",
                -8.587876319885254
            ],
            [
                "\u2581costs",
                -8.663841247558594
            ],
            [
                "\u2581especially",
                -8.645075798034668
            ],
            [
                "\u2581personnel",
                -8.653288841247559
            ],
            [
                "\u2581monitoring",
                -8.668681144714355
            ],
            [
                "\u2581matter",
                -8.607834815979004
            ],
            [
                "\u2581\u0627\u0644\u0635\u063a\u064a\u0631\u0629",
                -8.575024604797363
            ],
            [
                "\u2581\u0627\u0644\u062c\u0646\u0627\u0626\u064a\u0629",
                -8.60499382019043
            ],
            [
                "\u2581\u0645\u0646\u0639",
                -8.64677619934082
            ],
            [
                "\u2581\u0627\u0644\u0625\u0642\u0644\u064a\u0645\u064a",
                -8.605157852172852
            ],
            [
                "\u2581\u0648\u0643\u0627\u0646",
                -8.576641082763672
            ],
            [
                "\u2581principles",
                -8.6759672164917
            ],
            [
                "\u2581\u0627\u0644\u0639\u0631\u0628\u064a\u0629",
                -8.59862232208252
            ],
            [
                "\u2581\u0644\u0645\u0643\u0627\u0641\u062d\u0629",
                -8.597329139709473
            ],
            [
                "\u2581\u0628\u0647\u0630\u0627",
                -8.516803741455078
            ],
            [
                "\u2581fully",
                -8.665143966674805
            ],
            [
                "\u2581\u0623\u064a\u0646",
                -8.478812217712402
            ],
            [
                "\u2581\u0625\u0632\u0627\u0621",
                -8.611601829528809
            ],
            [
                "\u2581small",
                -8.657745361328125
            ],
            [
                "\u2581Where",
                -8.555818557739258
            ],
            [
                "n",
                -8.701255798339844
            ],
            [
                "\u2581systems",
                -8.708456039428711
            ],
            [
                "\u2581next",
                -8.621384620666504
            ],
            [
                "\u2581implement",
                -8.67642879486084
            ],
            [
                "\u2581Executive",
                -8.66427230834961
            ],
            [
                "\u2581\u0623\u0645\u0627\u0645",
                -8.589669227600098
            ],
            [
                "\u2581meet",
                -8.61668586730957
            ],
            [
                "\u2581existing",
                -8.67736530303955
            ],
            [
                "\u2581strengthen",
                -8.683475494384766
            ],
            [
                "\u2581\u0627\u0644\u062e\u0628\u0631\u0627\u0621",
                -8.611588478088379
            ],
            [
                "\u2581Arab",
                -8.603805541992188
            ],
            [
                "\u2581domestic",
                -8.688801765441895
            ],
            [
                "\u2581subject",
                -8.68348217010498
            ],
            [
                "\u2581\u0623\u0639\u062a\u0642\u062f",
                -8.48221206665039
            ],
            [
                "\u2581\u0627\u0644\u0642\u062f\u0631\u0627\u062a",
                -8.634161949157715
            ],
            [
                "\u2581course",
                -8.611948013305664
            ],
            [
                "\u2581decided",
                -8.671592712402344
            ],
            [
                "\u2581\u0627\u0644\u062a\u0642\u062f\u0645",
                -8.615511894226074
            ],
            [
                "\u2581\u0644\u064a\u0633\u062a",
                -8.538468360900879
            ],
            [
                "\u2581\u0625\u0639\u062f\u0627\u062f",
                -8.61555004119873
            ],
            [
                "\u2581\u0627\u0644\u0642\u0636\u0627\u0621",
                -8.630792617797852
            ],
            [
                "\u25812.",
                -8.752252578735352
            ],
            [
                "\u2581reporting",
                -8.691118240356445
            ],
            [
                "\u2581believe",
                -8.59988021850586
            ],
            [
                "\u2581included",
                -8.70943546295166
            ],
            [
                "\u25811.",
                -8.825773239135742
            ],
            [
                "\u2581procedures",
                -8.712496757507324
            ],
            [
                "\u2581technology",
                -8.68642520904541
            ],
            [
                "\u0630",
                -8.638028144836426
            ],
            [
                "\u2581\u0622\u0628",
                -8.632193565368652
            ],
            [
                "\u2581\u0644\u0643\u064a",
                -8.606834411621094
            ],
            [
                "\u2581least",
                -8.66765022277832
            ],
            [
                "\u2581\u0641\u0636\u0644\u0627",
                -8.614862442016602
            ],
            [
                "\u2581criminal",
                -8.680956840515137
            ],
            [
                "\u2581armed",
                -8.703571319580078
            ],
            [
                "\u2581Act",
                -8.694154739379883
            ],
            [
                "\u2581increased",
                -8.703544616699219
            ],
            [
                "\u2581\u0627\u0644\u0645\u0634\u0627\u0631\u0643\u0629",
                -8.641146659851074
            ],
            [
                "\u2581follow",
                -8.674246788024902
            ],
            [
                "\u2581\u0644\u0647\u0630\u0647",
                -8.601616859436035
            ],
            [
                "\u2581\u0645\u062e\u062a\u0644\u0641",
                -8.602849960327148
            ],
            [
                "\u2581\u062d\u0633\u0628",
                -8.62697696685791
            ],
            [
                "\u2581\u0627\u0639\u062a\u0645\u0627\u062f",
                -8.614903450012207
            ],
            [
                "\u2581reported",
                -8.709970474243164
            ],
            [
                "\u2581mechanisms",
                -8.714910507202148
            ],
            [
                "\u2581obligations",
                -8.72371768951416
            ],
            [
                "\u2581\u0627\u0644\u0645\u062f\u0646\u064a",
                -8.646071434020996
            ],
            [
                "\u2581Just",
                -8.57646656036377
            ],
            [
                "\u2581\u062d\u0627\u0644\u064a\u0627",
                -8.639599800109863
            ],
            [
                "\u2581\u0646\u0642\u0635",
                -8.638261795043945
            ],
            [
                "\u2581terms",
                -8.703975677490234
            ],
            [
                "\u2581results",
                -8.719857215881348
            ],
            [
                "\u2581problem",
                -8.652087211608887
            ],
            [
                "\u2581five",
                -8.682320594787598
            ],
            [
                "\u2581\u064a\u0643\u0646",
                -8.565361022949219
            ],
            [
                "\u2581\u0639\u0628\u0631",
                -8.623662948608398
            ],
            [
                "\u2581environment",
                -8.705171585083008
            ],
            [
                "\u2581\u0645\u0643\u0627\u0646",
                -8.527938842773438
            ],
            [
                "\u2581\u0627\u0644\u0623\u0635\u0644\u064a\u0629",
                -8.665939331054688
            ],
            [
                "\u063a",
                -8.585599899291992
            ],
            [
                "\u0635",
                -8.591938972473145
            ],
            [
                "\u2581000",
                -8.737713813781738
            ],
            [
                "\u2581\u0627\u0644\u0633\u0646\u062a\u064a\u0646",
                -8.64175033569336
            ],
            [
                "\u2581\u0627\u0644\u062b\u0627\u0644\u062b\u0629",
                -8.63766860961914
            ],
            [
                "\u2581\u0625\u0630",
                -8.59305477142334
            ],
            [
                "\u2581\u0628\u063a\u064a\u0629",
                -8.643868446350098
            ],
            [
                "\u2581Representative",
                -8.709355354309082
            ],
            [
                "\u2581rule",
                -8.70193862915039
            ],
            [
                "P",
                -9.067256927490234
            ],
            [
                "\u2581amount",
                -8.635555267333984
            ],
            [
                "\u2581\u0627\u0644\u062a\u0646\u0641\u064a\u0630",
                -8.646455764770508
            ],
            [
                "\u2581\u0646\u0641\u0633\u0647",
                -8.60803508758545
            ],
            [
                "\u2581practices",
                -8.738138198852539
            ],
            [
                "\u2581\u0627\u0644\u0635\u0646\u062f\u0648\u0642",
                -8.661036491394043
            ],
            [
                "\u2581sorry",
                -8.5853271484375
            ],
            [
                "\u2581\u062d\u064a\u0646",
                -8.633198738098145
            ],
            [
                "\u2581Is",
                -9.260157585144043
            ],
            [
                ")\u061f",
                -8.623539924621582
            ],
            [
                "\u2581\u0645\u0648\u0627\u0635\u0644\u0629",
                -8.671895027160645
            ],
            [
                "\u2581\u0647\u064a\u0627",
                -8.547698020935059
            ],
            [
                "\u2581adoption",
                -8.739995002746582
            ],
            [
                "\u2581\u0646\u062a\u0627\u0626\u062c",
                -8.673134803771973
            ],
            [
                "\u2581regarding",
                -8.74443244934082
            ],
            [
                "\u2581\u0648\u0627\u0644\u0627\u062c\u062a\u0645\u0627\u0639\u064a",
                -8.662796974182129
            ],
            [
                "\u0631\u0629",
                -8.671500205993652
            ],
            [
                "\u062f\u0629",
                -8.696599006652832
            ],
            [
                "\u2581\u0645\u0645\u062b\u0644",
                -8.629975318908691
            ],
            [
                "\u2581\u0627\u0644\u0645\u0634\u0627\u0631\u064a\u0639",
                -8.671354293823242
            ],
            [
                "\u2581agreement",
                -8.733187675476074
            ],
            [
                "\u2581key",
                -8.715181350708008
            ],
            [
                "\u2581\u0639\u0644\u0645\u0627",
                -8.678150177001953
            ],
            [
                "\u0634",
                -8.55772876739502
            ],
            [
                "\u2581\u0644\u0643\u0644",
                -8.665759086608887
            ],
            [
                "\u2581\u0628\u0645",
                -8.831130027770996
            ],
            [
                "\u2581\u062f\u0648\u0631",
                -8.647093772888184
            ],
            [
                "\u2581standards",
                -8.751605987548828
            ],
            [
                "\u2581One",
                -8.69010066986084
            ],
            [
                "\u2581\u0644\u062f\u064a",
                -8.523404121398926
            ],
            [
                "\u2581F",
                -8.943217277526855
            ],
            [
                "\u2581America",
                -8.708962440490723
            ],
            [
                "governmental",
                -8.722780227661133
            ],
            [
                "\u2581food",
                -8.71881103515625
            ],
            [
                "\u2581\u0627\u0644\u0627\u062d\u062a\u064a\u0627\u062c\u0627\u062a",
                -8.695208549499512
            ],
            [
                "\u2581\u0661",
                -8.513786315917969
            ],
            [
                "\u2581\u062a\u0642\u064a\u064a\u0645",
                -8.685091018676758
            ],
            [
                "\u2581\u0627\u0644\u0646",
                -8.705499649047852
            ],
            [
                "\u2581problems",
                -8.750055313110352
            ],
            [
                "\u2581\u0644\u0641\u062a\u0631\u0629",
                -8.66361141204834
            ],
            [
                "\u2581decisions",
                -8.792610168457031
            ],
            [
                "\u2581four",
                -8.715020179748535
            ],
            [
                "\u2581\u0643\u0645",
                -8.626311302185059
            ],
            [
                "\u0645\u0646",
                -8.593027114868164
            ],
            [
                "\u2581\u0627\u0644\u062d\u064a\u0627\u0629",
                -8.645585060119629
            ],
            [
                "\u2581August",
                -8.75129508972168
            ],
            [
                "\u2581\u0627\u0644\u0628\u0644\u0627\u063a",
                -8.715521812438965
            ],
            [
                "\u2581\u0631\u062c\u0644",
                -8.552227973937988
            ],
            [
                "\u2581consultations",
                -8.775470733642578
            ],
            [
                "\u2581\u0635\u062d\u064a\u062d",
                -8.5490083694458
            ],
            [
                "\u2581\u0628\u064a",
                -8.610039710998535
            ],
            [
                "on",
                -8.854068756103516
            ],
            [
                "B",
                -9.220282554626465
            ],
            [
                "\u2581\u0627\u0644\u0635\u062d\u064a\u0629",
                -8.706099510192871
            ],
            [
                "\u258140",
                -9.304075241088867
            ],
            [
                "\u2581example",
                -8.746650695800781
            ],
            [
                "\u2581contributions",
                -8.77053451538086
            ],
            [
                "\u2581\u0627\u0644\u0643\u062b\u064a\u0631",
                -8.603728294372559
            ],
            [
                "\u2581yet",
                -8.722694396972656
            ],
            [
                "\u2581funds",
                -8.777945518493652
            ],
            [
                "\u2581de",
                -8.858134269714355
            ],
            [
                "\u2581\u0648\u0644",
                -8.689411163330078
            ],
            [
                "\u2581service",
                -8.749604225158691
            ],
            [
                "\u2581\u0628\u0639\u062b\u0629",
                -8.708112716674805
            ],
            [
                "\u2581\u0645\u0646\u0638\u0648\u0645\u0629",
                -8.700005531311035
            ],
            [
                "\u2581\u0627\u0644\u062c\u0631\u064a\u0645\u0629",
                -8.695289611816406
            ],
            [
                ")\u061b",
                -8.754813194274902
            ],
            [
                "\u25812009",
                -9.375718116760254
            ],
            [
                "\u2581\u0627\u0644\u0645\u0639\u0642\u0648\u062f\u0629",
                -8.708395004272461
            ],
            [
                "\u2581Advisory",
                -8.777806282043457
            ],
            [
                "\u2581\u0627\u0644\u0646\u062d\u0648",
                -8.702778816223145
            ],
            [
                "\u2581\u0627\u0644\u062d\u0642\u0648\u0642",
                -8.706418991088867
            ],
            [
                "\u2581away",
                -8.679390907287598
            ],
            [
                "\u064a\u0627\u062a",
                -8.761519432067871
            ],
            [
                "\u2581mission",
                -8.768211364746094
            ],
            [
                "\u2581\u0628\u0627\u0644\u0645",
                -8.95174503326416
            ],
            [
                "\u2581\u0627\u0644\u0631\u0627\u0645\u064a\u0629",
                -8.715449333190918
            ],
            [
                "\u2581Ministry",
                -8.79605484008789
            ],
            [
                "\u2581\u0646\u0641\u0633",
                -8.62511920928955
            ],
            [
                "\u2581improve",
                -8.782678604125977
            ],
            [
                "\u2581\u0633\u064a\u0643\u0648\u0646",
                -8.618850708007812
            ],
            [
                "\u2581thought",
                -8.657244682312012
            ],
            [
                "\u2581risk",
                -8.754668235778809
            ],
            [
                "--",
                -9.181251525878906
            ],
            [
                "\u2581Iraq",
                -8.776164054870605
            ],
            [
                "\u2581response",
                -8.778035163879395
            ],
            [
                "\u2581\u0642\u0627\u0626\u0645\u0629",
                -8.710683822631836
            ],
            [
                "\u2581behalf",
                -8.788741111755371
            ],
            [
                "\u2581\u0648\u0627\u0644\u0623\u0645\u0646",
                -8.71180248260498
            ],
            [
                "\u2581sure",
                -8.65829086303711
            ],
            [
                "\u2581strengthening",
                -8.791630744934082
            ],
            [
                "\u2581\u0627\u0644\u0644\u0627\u062c\u0626\u064a\u0646",
                -8.70967960357666
            ],
            [
                "\u2581providing",
                -8.790555000305176
            ],
            [
                "\u2581commitment",
                -8.786336898803711
            ],
            [
                "\u2581\u064a\u0648\u062c\u062f",
                -8.64905071258545
            ],
            [
                "\u2581cost",
                -8.761967658996582
            ],
            [
                "\u2581\u0648\u0646",
                -8.79127025604248
            ],
            [
                "\u2581\u0646\u0647\u0627\u064a\u0629",
                -8.6890287399292
            ],
            [
                "\u2581When",
                -8.710342407226562
            ],
            [
                "\u2581Ms",
                -8.791055679321289
            ],
            [
                "\u2581victims",
                -8.788446426391602
            ],
            [
                "\u2581February",
                -8.795536994934082
            ],
            [
                "\u2581environmental",
                -8.80006217956543
            ],
            [
                "\u2581Israel",
                -8.78134822845459
            ],
            [
                "\u2581\u0636\u0631\u0648\u0631\u0629",
                -8.731704711914062
            ],
            [
                "\u2581always",
                -8.716642379760742
            ],
            [
                "\u2581\u0644\u0630\u0627",
                -8.612082481384277
            ],
            [
                "\u2581\u0627\u0644\u0633\u064a\u062f\u0629",
                -8.711169242858887
            ],
            [
                "\u2581\u0623\u0634\u0643\u0627\u0644",
                -8.744388580322266
            ],
            [
                "\u2581\u0627\u0644\u062f\u0627\u062e\u0644\u064a\u0629",
                -8.739316940307617
            ],
            [
                "\u2581\u0623\u062d\u0643\u0627\u0645",
                -8.719219207763672
            ],
            [
                "\u2581business",
                -8.758490562438965
            ],
            [
                "\u2581things",
                -8.701845169067383
            ],
            [
                "\u2581\u0627\u0644\u0631\u062c\u0644",
                -8.631092071533203
            ],
            [
                "\u2581land",
                -8.772847175598145
            ],
            [
                "\u2581Are",
                -8.691097259521484
            ],
            [
                "\u2581\u064a\u062c\u0631\u064a",
                -8.704639434814453
            ],
            [
                "\u2581\u0648\u062a\u0639\u0632\u064a\u0632",
                -8.7412109375
            ],
            [
                "\u2581disarmament",
                -8.816695213317871
            ],
            [
                "\u2581recent",
                -8.813581466674805
            ],
            [
                "\u2581post",
                -8.783173561096191
            ],
            [
                "\u2581\u0627\u062a\u0641\u0627\u0642",
                -8.718156814575195
            ],
            [
                "\u2581\u0648\u064a\u0645\u0643\u0646",
                -8.748608589172363
            ],
            [
                "\u2581due",
                -8.811318397521973
            ],
            [
                "\u2581common",
                -8.812989234924316
            ],
            [
                "\u2581anything",
                -8.690686225891113
            ],
            [
                "\u2581\u0627\u0644\u0627",
                -8.855182647705078
            ],
            [
                "\u2581\u0627\u0644\u062d\u0627\u0644\u0627\u062a",
                -8.741654396057129
            ],
            [
                "\u2581\u0639\u0634\u0631",
                -8.716663360595703
            ],
            [
                "\u25812010",
                -9.384807586669922
            ],
            [
                "\u2581\u062a\u0646\u0638\u064a\u0645",
                -8.761570930480957
            ],
            [
                "\u2581several",
                -8.811188697814941
            ],
            [
                "\u2581government",
                -8.793588638305664
            ],
            [
                "\u2581\u0627\u0644\u0628\u064a\u0626\u0629",
                -8.753722190856934
            ],
            [
                ".\"",
                -8.728266716003418
            ],
            [
                "r",
                -8.83613395690918
            ],
            [
                "\u2581\u0648\u063a\u064a\u0631\u0647\u0627",
                -8.755735397338867
            ],
            [
                "\u2581challenges",
                -8.826236724853516
            ],
            [
                "\u2581Look",
                -8.676081657409668
            ],
            [
                ".2",
                -9.359655380249023
            ],
            [
                "\u2581\u0636\u0645\u0627\u0646",
                -8.758281707763672
            ],
            [
                "\u2581re",
                -8.943799018859863
            ],
            [
                "\u2581\u0627\u0644\u0633\u0644\u0637\u0627\u062a",
                -8.761588096618652
            ],
            [
                "\u2581\u0634\u0628\u0627\u0637",
                -8.768874168395996
            ],
            [
                "\u2581\u0643\u0644\u0627",
                -8.719149589538574
            ],
            [
                "\u2581peacekeeping",
                -8.843154907226562
            ],
            [
                "\u2581assessment",
                -8.818992614746094
            ],
            [
                "\u2581\u0627\u0644\u062a\u062f\u0631\u064a\u0628",
                -8.766339302062988
            ],
            [
                "\u2581\u0645\u0631\u062d\u0628\u0627",
                -8.625955581665039
            ],
            [
                "\u2581\u0627\u0644\u0645\u0633\u0623\u0644\u0629",
                -8.755753517150879
            ],
            [
                "\u2581\u064a\u0645\u0643\u0646\u0643",
                -8.65091323852539
            ],
            [
                "\u2581Not",
                -8.744111061096191
            ],
            [
                "\u2581indigenous",
                -8.832528114318848
            ],
            [
                "\u2581secretariat",
                -8.83132266998291
            ],
            [
                "\u2581\u0627\u0644\u0623\u0645\u0631\u064a\u0643\u064a\u0629",
                -8.761831283569336
            ],
            [
                "\u2581name",
                -8.727906227111816
            ],
            [
                "\u2581talk",
                -8.708864212036133
            ],
            [
                "\u2581\u062c\u064a\u062f",
                -8.62929916381836
            ],
            [
                "\u2581\u0628\u062d\u0642\u0648\u0642",
                -8.777809143066406
            ],
            [
                "\u2581today",
                -8.781692504882812
            ],
            [
                "\u2581\u0635\u0627\u062d\u0628",
                -8.774914741516113
            ],
            [
                "\u2581\u0625\u0639\u0644\u0627\u0646",
                -8.742671966552734
            ],
            [
                "\u2581\u0639\u0646\u0647\u0627",
                -8.86694622039795
            ],
            [
                "\u2581\u0644\u0647\u0645",
                -8.730823516845703
            ],
            [
                "\u2581office",
                -8.805032730102539
            ],
            [
                "\u0623\u0648",
                -8.827665328979492
            ],
            [
                "1",
                -9.165384292602539
            ],
            [
                "\u2581\u0639\u062f\u0629",
                -8.768868446350098
            ],
            [
                "\u2581East",
                -8.847396850585938
            ],
            [
                "\u2581\u0623\u0639\u0644\u0645",
                -8.64218521118164
            ],
            [
                "\u2581\u0627\u0644\u0642\u0636\u0627\u064a\u0627",
                -8.786818504333496
            ],
            [
                "\u2581\u0644\u062a\u0639\u0632\u064a\u0632",
                -8.790675163269043
            ],
            [
                "\u2581matters",
                -8.86154556274414
            ],
            [
                "based",
                -8.852014541625977
            ],
            [
                "\u2581needed",
                -8.839431762695312
            ],
            [
                "\u0641\u0628\u0631\u0627\u064a\u0631",
                -8.78934097290039
            ],
            [
                "\u2581\u062c\u0646\u0648\u0628",
                -8.773406982421875
            ],
            [
                "\u2581terrorism",
                -8.872136116027832
            ],
            [
                "\u2581\u0644\u0633\u062a",
                -8.649524688720703
            ],
            [
                "\u2581develop",
                -8.849815368652344
            ],
            [
                "\u2581\u0627\u0644\u0642\u0637\u0627\u0639",
                -8.77977466583252
            ],
            [
                "\u2581\u0627\u0644\u0645\u0628\u0627\u062f\u0626",
                -8.7881441116333
            ],
            [
                "\u2581clear",
                -8.829801559448242
            ],
            [
                "\u0623\u063a\u0633\u0637\u0633",
                -8.784759521484375
            ],
            [
                "\u2581provides",
                -8.895073890686035
            ],
            [
                "\u2581serious",
                -8.83549976348877
            ],
            [
                "().",
                -8.852933883666992
            ],
            [
                "\u2581\u0627\u0644\u0645\u062f\u0646\u064a\u0629",
                -8.794917106628418
            ],
            [
                "\u2581Service",
                -8.87187671661377
            ],
            [
                "\u2581\u0627\u062c\u062a\u0645\u0627\u0639",
                -8.77070426940918
            ],
            [
                "building",
                -8.859737396240234
            ],
            [
                "\u2581actions",
                -8.89014720916748
            ],
            [
                "\u25813.",
                -8.971302032470703
            ],
            [
                "3",
                -9.317487716674805
            ],
            [
                "\u2581Permanent",
                -8.859567642211914
            ],
            [
                "\u2581whole",
                -8.810359954833984
            ],
            [
                "\u25811999",
                -9.421881675720215
            ],
            [
                "D",
                -9.251265525817871
            ],
            [
                "\u2581days",
                -8.844673156738281
            ],
            [
                "\u0627\u0645",
                -8.773628234863281
            ],
            [
                "\u2581past",
                -8.837831497192383
            ],
            [
                "\u2581\u0627\u0644\u062c\u0646\u0633\u064a\u0646",
                -8.828326225280762
            ],
            [
                "\u2581Who",
                -8.744987487792969
            ],
            [
                "\u2581money",
                -8.774234771728516
            ],
            [
                "\u2581leave",
                -8.777505874633789
            ],
            [
                "\u2581\u0627\u0644\u0625\u062f\u0627\u0631\u064a\u0629",
                -8.800568580627441
            ],
            [
                "\u2581regular",
                -8.869767189025879
            ],
            [
                "\u2581school",
                -8.811628341674805
            ],
            [
                "\u2581significant",
                -8.867857933044434
            ],
            [
                "\u2581\u0628\u062e\u064a\u0631",
                -8.671076774597168
            ],
            [
                "\u2581ever",
                -8.769529342651367
            ],
            [
                "\u2581\u0628\u0623\u0646\u0647",
                -8.784880638122559
            ],
            [
                "\u2581\u0636\u0645\u0646",
                -8.801837921142578
            ],
            [
                "\u2581\u0623\u0645",
                -8.674164772033691
            ],
            [
                "\u2581space",
                -8.868833541870117
            ],
            [
                "\u2581UNDP",
                -8.87321662902832
            ],
            [
                "\u2581\u0627\u0644\u0623\u0633\u0627\u0633\u064a",
                -8.79393196105957
            ],
            [
                "\u2581having",
                -8.84183120727539
            ],
            [
                "\u2581\u064a\u0642\u0648\u0645",
                -8.778751373291016
            ],
            [
                "\u2581\u0639\u0627\u0645\u0629",
                -8.836088180541992
            ],
            [
                "\u2581reform",
                -8.87370777130127
            ],
            [
                "\u2581keep",
                -8.767909049987793
            ],
            [
                "\u2581initiatives",
                -8.892690658569336
            ],
            [
                "\u2581\u0627\u0644\u0627\u062c\u062a\u0645\u0627\u0639\u0627\u062a",
                -8.82939338684082
            ],
            [
                "\u2581girls",
                -8.859365463256836
            ],
            [
                "\u2581night",
                -8.751233100891113
            ],
            [
                "\u2581\u0627\u0644\u0634\u0627\u0645\u0644",
                -8.818758964538574
            ],
            [
                "\u2581until",
                -8.835420608520508
            ],
            [
                "\u2581\u0646\u0648\u0639",
                -8.765132904052734
            ],
            [
                "\u2581dialogue",
                -8.885665893554688
            ],
            [
                "\u2581crime",
                -8.853682518005371
            ],
            [
                "\u2581become",
                -8.854315757751465
            ],
            [
                "\u2581\u062d\u062f\u062b",
                -8.715795516967773
            ],
            [
                "\u2581\u0633\u064a\u0627\u0642",
                -8.826693534851074
            ],
            [
                "\u2581\u062a\u0642\u0627\u0631\u064a\u0631",
                -8.816869735717773
            ],
            [
                "\u2581kind",
                -8.775239944458008
            ],
            [
                "\u2581prevention",
                -8.887002944946289
            ],
            [
                "\u2581open",
                -8.832459449768066
            ],
            [
                "\u2581\u062a\u062a\u0639\u0644\u0642",
                -8.82120132446289
            ],
            [
                "\u2581\u0623\u0639\u0644\u0627\u0647",
                -8.824148178100586
            ],
            [
                "\u2581\u0627\u0644\u0623\u062e\u064a\u0631\u0629",
                -8.803256034851074
            ],
            [
                "\u2581Thank",
                -8.745390892028809
            ],
            [
                "\u2581biennium",
                -8.889585494995117
            ],
            [
                "\u2581\u0627\u0644\u062a\u0642\u0646\u064a\u0629",
                -8.834898948669434
            ],
            [
                "\u2581able",
                -8.863473892211914
            ],
            [
                "\u2581\u0627\u0644\u0639\u062f\u064a\u062f",
                -8.802811622619629
            ],
            [
                "\u2581\u064a\u0642\u062f\u0645",
                -8.808465003967285
            ],
            [
                "\u2581\u0627\u0644\u0634\u0624\u0648\u0646",
                -8.819856643676758
            ],
            [
                "\u2581third",
                -8.875619888305664
            ],
            [
                "\u2581told",
                -8.757452964782715
            ],
            [
                "\u2581\u0645\u0634\u0627\u0631\u064a\u0639",
                -8.821752548217773
            ],
            [
                "\u2581application",
                -8.880437850952148
            ],
            [
                "\u2581establish",
                -8.888769149780273
            ],
            [
                "\u2581planning",
                -8.888860702514648
            ],
            [
                "\u2581\u0648\u062c\u0647",
                -8.782072067260742
            ],
            [
                "\u2581strategy",
                -8.906847953796387
            ],
            [
                "\u2581practice",
                -8.880510330200195
            ],
            [
                "\u2581\u0645\u062d\u062f\u062f\u0629",
                -8.82819652557373
            ],
            [
                "\u2581documents",
                -8.92219352722168
            ],
            [
                "un",
                -9.478887557983398
            ],
            [
                "\u2581Chairman",
                -8.909865379333496
            ],
            [
                "4",
                -9.356308937072754
            ],
            [
                "\u2581lack",
                -8.898073196411133
            ],
            [
                "\u2581His",
                -8.870887756347656
            ],
            [
                "\u2581\u0648\u0642\u0627\u0644",
                -8.809226989746094
            ],
            [
                "\u2581HIV",
                -8.921453475952148
            ],
            [
                "\u2581\u0634\u064a\u0626\u0627",
                -8.704296112060547
            ],
            [
                "\u2581\u062a\u0634\u0645\u0644",
                -8.836371421813965
            ],
            [
                "\u2581\u062f\u0648\u0644",
                -8.811985969543457
            ],
            [
                "\u2581\u0627\u0644\u062b\u0627\u0644\u062b",
                -8.821036338806152
            ],
            [
                "\u2581\u062a\u0639\u0631\u0641",
                -8.697892189025879
            ],
            [
                "\u2581\u0627\u0644\u0634\u0639\u0648\u0628",
                -8.86153507232666
            ],
            [
                "\u2581\u0623\u0645\u0627",
                -8.82832145690918
            ],
            [
                "\u2581arms",
                -8.912564277648926
            ],
            [
                "\u2581\u0627\u0644\u062e\u0627\u0645\u0633\u0629",
                -8.830854415893555
            ],
            [
                "\u2581\u0639\u0645\u0644\u0627",
                -8.86342716217041
            ],
            [
                "\u2581\u062d\u0627\u0644",
                -8.737982749938965
            ],
            [
                "\u2581\u0627\u0644\u062a\u0646\u0641\u064a\u0630\u064a",
                -8.83509635925293
            ],
            [
                "\u2581date",
                -8.88049030303955
            ],
            [
                "\u2581para",
                -8.925175666809082
            ],
            [
                "\u2581\u0627\u0644\u062d\u062f",
                -8.841472625732422
            ],
            [
                "\u2581\u0645\u062c\u0627\u0644\u0627\u062a",
                -8.854616165161133
            ],
            [
                "\u2581equality",
                -8.92822265625
            ],
            [
                "\u2581peoples",
                -8.965906143188477
            ],
            [
                "\u2581\u062e\u0627\u0631\u062c",
                -8.772582054138184
            ],
            [
                "\u2581\u0628\u0627\u0621",
                -8.837215423583984
            ],
            [
                "\u2581dated",
                -8.909432411193848
            ],
            [
                "\u2581\u0625\u0645\u0643\u0627\u0646\u064a\u0629",
                -8.85744857788086
            ],
            [
                "\u2581promotion",
                -8.922942161560059
            ],
            [
                "\u2581missions",
                -8.925116539001465
            ],
            [
                "\u2581light",
                -8.876775741577148
            ],
            [
                "\u2581\u0628\u064a\u0627\u0646\u0627\u062a",
                -8.856095314025879
            ],
            [
                "\u2581\u0627\u0644\u0648\u062b\u0627\u0626\u0642",
                -8.8176851272583
            ],
            [
                "\u2581\u0644\u062f\u064a\u0643",
                -8.716229438781738
            ],
            [
                "\u0651\u064f",
                -8.934828758239746
            ],
            [
                "\u2581requests",
                -8.931869506835938
            ],
            [
                "\u2581equipment",
                -8.908373832702637
            ],
            [
                "\u2581main",
                -8.925384521484375
            ],
            [
                "\u2581\u0627\u0644\u0645\u0634\u062a\u0631\u0643",
                -8.848746299743652
            ],
            [
                "\u2581free",
                -8.884820938110352
            ],
            [
                "\u2581\u0648\u0625\u0646",
                -8.8318452835083
            ],
            [
                "\u2581growth",
                -8.9170560836792
            ],
            [
                "\u2581\u0645\u062f\u0649",
                -8.836997985839844
            ],
            [
                "\u2581research",
                -8.920551300048828
            ],
            [
                "\u2581forces",
                -8.941086769104004
            ],
            [
                "\u2581procedure",
                -8.91431713104248
            ],
            [
                "\u2581\u0644\u0644\u0641\u062a\u0631\u0629",
                -8.876803398132324
            ],
            [
                "term",
                -8.925522804260254
            ],
            [
                "\u2581\u064a\u062a\u0635\u0644",
                -8.841048240661621
            ],
            [
                "\u2581focus",
                -8.922958374023438
            ],
            [
                "\u2581\u0635\u0646\u062f\u0648\u0642",
                -8.837763786315918
            ],
            [
                "\u2581While",
                -8.92633056640625
            ],
            [
                "\u2581\u0627\u0644\u0639\u0631\u0627\u0642",
                -8.813060760498047
            ],
            [
                "\u2581\u062d",
                -8.748520851135254
            ],
            [
                "\u2581however",
                -8.929727554321289
            ],
            [
                "\u2581\u0627\u0644\u0625\u0639\u0644\u0627\u0645",
                -8.864995956420898
            ],
            [
                "\u2581\u0639\u0646\u0647",
                -8.939644813537598
            ],
            [
                "\u2581\u062a\u0645\u0648\u064a\u0644",
                -8.84281063079834
            ],
            [
                "\u2581acts",
                -8.940285682678223
            ],
            [
                "\u2581\u0631\u0633\u0627\u0644\u0629",
                -8.837493896484375
            ],
            [
                "\u2581list",
                -8.90715217590332
            ],
            [
                "\u2581administrative",
                -8.940327644348145
            ],
            [
                "\u2581wish",
                -8.900992393493652
            ],
            [
                "\u2581\u062a\u0645\u0627\u0645\u0627",
                -8.785174369812012
            ],
            [
                "\u2581\u0627\u0644\u0645\u0624\u0642\u062a",
                -8.854535102844238
            ],
            [
                "\u2581\u0627\u0644\u0627\u062a\u062c\u0627\u0631",
                -8.883307456970215
            ],
            [
                "\u2581\u0627\u0644\u0623\u0631\u0627\u0636\u064a",
                -8.864259719848633
            ],
            [
                "\u2581\u0644\u062a\u0646\u0641\u064a\u0630",
                -8.866477966308594
            ],
            [
                "\u2581\u0648\u0625\u0644\u0649",
                -8.865274429321289
            ],
            [
                "\u2581\u0627\u0644\u0641\u0635\u0644",
                -8.84526538848877
            ],
            [
                "\u2581involved",
                -8.928071975708008
            ],
            [
                "\u2581\u0627\u0644\u062c\u0632\u0621",
                -8.856378555297852
            ],
            [
                "\u2581\u0648\u0632\u0627\u0631\u0629",
                -8.872061729431152
            ],
            [
                "\u2581violations",
                -8.943560600280762
            ],
            [
                "\u2581Covenant",
                -8.928176879882812
            ],
            [
                "\u2581\u0639\u0634\u0631\u0629",
                -8.86471939086914
            ],
            [
                "\u2581point",
                -8.87621021270752
            ],
            [
                "\u062a\u0646\u0627",
                -8.855843544006348
            ],
            [
                "\u2581\u0627\u0644\u0645\u0646\u0627\u0639\u0629",
                -8.872614860534668
            ],
            [
                "\u2581priority",
                -8.935474395751953
            ],
            [
                "\u2581\u0648\u063a\u064a\u0631",
                -8.851330757141113
            ],
            [
                "\u0647\u0646",
                -8.921711921691895
            ],
            [
                "\u2581\u0627\u0644\u062d\u0627\u0644\u064a\u0629",
                -8.8638916015625
            ],
            [
                "\u2581body",
                -8.891570091247559
            ],
            [
                "\u2581\u0627\u0644\u0642\u0631\u0627\u0631\u0627\u062a",
                -8.881431579589844
            ],
            [
                "\u2581Commissioner",
                -8.941023826599121
            ],
            [
                "\u2581\u0627\u0644\u062a\u062c\u0627\u0631\u064a\u0629",
                -8.878317832946777
            ],
            [
                "\u2581trafficking",
                -8.945854187011719
            ],
            [
                "\u2581\u0627\u0646\u0647\u0627",
                -8.78626537322998
            ],
            [
                "\u2581certain",
                -8.926114082336426
            ],
            [
                "\u2581prevent",
                -8.94323444366455
            ],
            [
                "\u2581far",
                -8.897714614868164
            ],
            [
                "\u2581\u0645\u0633\u0627\u0639\u062f\u0629",
                -8.860411643981934
            ],
            [
                "\u2581real",
                -8.869282722473145
            ],
            [
                "\u2581bring",
                -8.880650520324707
            ],
            [
                "\u062e",
                -8.817412376403809
            ],
            [
                "\u2581Director",
                -8.93663501739502
            ],
            [
                "\u2581making",
                -8.904263496398926
            ],
            [
                "\u2581Information",
                -8.94183349609375
            ],
            [
                "\u2581\u0628\u0643",
                -8.767194747924805
            ],
            [
                "\u2581\u062a\u0631\u064a\u062f",
                -8.753152847290039
            ],
            [
                "\u2581\u0628\u0627\u0644\u0641\u0639\u0644",
                -8.829559326171875
            ],
            [
                "\u2581living",
                -8.92969036102295
            ],
            [
                "\u2581responsible",
                -8.957386016845703
            ],
            [
                "\u2581\u0627\u0644\u0627\u062c\u062a\u0645\u0627\u0639\u064a",
                -8.898279190063477
            ],
            [
                "\u2581\u0627\u0644\u0623\u0631\u0636",
                -8.829172134399414
            ],
            [
                "\u2581M",
                -9.171417236328125
            ],
            [
                "\u2581\u0644\u0644\u062f\u0648\u0644",
                -8.885029792785645
            ],
            [
                "\u2581THE",
                -8.915203094482422
            ],
            [
                "\u2581\u062c\u0647\u0648\u062f",
                -8.879265785217285
            ],
            [
                "\u2581\u0627\u0644\u0645\u0633\u0644\u062d\u0629",
                -8.89599609375
            ],
            [
                "\u2581\u062a\u0639\u0645\u0644",
                -8.846601486206055
            ],
            [
                "\u2581\u0627\u0646\u0638\u0631",
                -8.807526588439941
            ],
            [
                "\u2581\u062b\u0644\u0627\u062b\u0629",
                -8.859074592590332
            ],
            [
                "\u2581\u0627\u0644\u0627\u0633\u062a\u0639\u0631\u0627\u0636",
                -8.907349586486816
            ],
            [
                "\u2581treaty",
                -8.979606628417969
            ],
            [
                "\u2581cultural",
                -8.969304084777832
            ],
            [
                "\u2581\u0623\u0648\u0644\u0627",
                -8.862811088562012
            ],
            [
                "\u2581\u0645\u0628\u0627\u0634\u0631\u0629",
                -8.865377426147461
            ],
            [
                "\u2581months",
                -8.929469108581543
            ],
            [
                "\u2581\u062a\u0632\u0627\u0644",
                -8.87302017211914
            ],
            [
                "\u2581\u0639\u0644\u064a\u0646\u0627",
                -8.79015827178955
            ],
            [
                "\u2581\u0627\u0644\u062a\u0646\u0633\u064a\u0642",
                -8.906895637512207
            ],
            [
                "\u2581\u0646\u0633\u0628\u0629",
                -8.911701202392578
            ],
            [
                "\u2581\u0627\u0644\u0639\u0647\u062f",
                -8.903244018554688
            ],
            [
                "\u2581recommended",
                -8.967626571655273
            ],
            [
                "\u2581line",
                -8.927774429321289
            ],
            [
                "\u2581production",
                -8.962549209594727
            ],
            [
                "*",
                -9.440400123596191
            ],
            [
                "\u2581\u0646\u062a\u064a\u062c\u0629",
                -8.898463249206543
            ],
            [
                "\u2581agreements",
                -8.983458518981934
            ],
            [
                "\u2581\u0648\u0633\u064a",
                -8.959942817687988
            ],
            [
                "\u2581\u0627\u0644\u062d\u0627\u062c\u0629",
                -8.888769149780273
            ],
            [
                "\u2581Minister",
                -8.927379608154297
            ],
            [
                "l",
                -9.030632972717285
            ],
            [
                "\u2581position",
                -8.939680099487305
            ],
            [
                "\u2581An",
                -8.964217185974121
            ],
            [
                "\u2581\u062a\u0634\u064a\u0631",
                -8.88529109954834
            ],
            [
                "\".",
                -9.164604187011719
            ],
            [
                "\u2581Treaty",
                -8.963111877441406
            ],
            [
                "\u2581early",
                -8.955286026000977
            ],
            [
                "\u2581operational",
                -8.979990005493164
            ],
            [
                "\u2581left",
                -8.875298500061035
            ],
            [
                "\u2581employment",
                -8.97933578491211
            ],
            [
                "\u2581treatment",
                -8.978922843933105
            ],
            [
                "\u2581Your",
                -8.850945472717285
            ],
            [
                "\u2581Can",
                -8.855120658874512
            ],
            [
                "\u2581\u0627\u0644\u0623\u0645\u0648\u0627\u0644",
                -8.911067008972168
            ],
            [
                "\u2581\u0643\u062b\u064a\u0631\u0627",
                -8.839057922363281
            ],
            [
                "\u062a\u0627\u0646",
                -8.973898887634277
            ],
            [
                "\u2581section",
                -8.967693328857422
            ],
            [
                "\u2581committed",
                -8.988142013549805
            ],
            [
                "\u2581instruments",
                -8.987266540527344
            ],
            [
                "\u2581\u0662",
                -8.814526557922363
            ],
            [
                "\u0647\u0644",
                -8.814311981201172
            ],
            [
                "\u2581discussion",
                -8.984790802001953
            ],
            [
                "\u2581\u062a\u0643\u0627\u0644\u064a\u0641",
                -8.920047760009766
            ],
            [
                "\u2581\u0644\u062a\u062d\u0642\u064a\u0642",
                -8.925822257995605
            ],
            [
                "\u2581Centre",
                -8.96514892578125
            ],
            [
                "\u2581China",
                -8.930079460144043
            ],
            [
                "\u2581\u0644\u0623",
                -8.80870532989502
            ],
            [
                "\u2581\u0627\u0644\u0645\u0632\u064a\u062f",
                -8.887042045593262
            ],
            [
                "\u2581guy",
                -8.855337142944336
            ],
            [
                "\u2581statements",
                -9.007387161254883
            ],
            [
                "\u2581\u0627\u0644\u0648\u0635\u0648\u0644",
                -8.92465591430664
            ],
            [
                "\u2581\u0628\u062f",
                -8.898127555847168
            ],
            [
                "\u2581\u062a\u0637\u0644\u0628",
                -8.909136772155762
            ],
            [
                "\u2581Tribunal",
                -8.987835884094238
            ],
            [
                "\u2581please",
                -8.884137153625488
            ],
            [
                "\u2581Please",
                -8.895868301391602
            ],
            [
                "\u2581achieve",
                -8.998573303222656
            ],
            [
                "\u2581\u0628\u0647\u0630\u0647",
                -8.874215126037598
            ],
            [
                "\u2581few",
                -8.941439628601074
            ],
            [
                "\u2581\u0625\u0633\u0631\u0627\u0626\u064a\u0644",
                -8.920888900756836
            ],
            [
                "\u2581\u0627\u0644\u0645\u0645\u062b\u0644",
                -8.914390563964844
            ],
            [
                "\u2581rate",
                -8.988096237182617
            ],
            [
                "\u2581funding",
                -9.009374618530273
            ],
            [
                "\u2581war",
                -8.961881637573242
            ],
            [
                "\u2581objectives",
                -9.016396522521973
            ],
            [
                "\u2581annual",
                -8.990845680236816
            ],
            [
                "\u2581\u0627\u0630\u0627",
                -8.795027732849121
            ],
            [
                "h",
                -9.194854736328125
            ],
            [
                "\u2581sexual",
                -8.998053550720215
            ],
            [
                "\u2581\u0627\u0644\u0648\u0643\u0627\u0644\u0627\u062a",
                -8.938075065612793
            ],
            [
                "\u2581mind",
                -8.920367240905762
            ],
            [
                "\u2581*",
                -9.335177421569824
            ],
            [
                "(.",
                -9.042872428894043
            ],
            [
                "\u2581\u0645\u0634\u0627\u0631\u0643\u0629",
                -8.935297012329102
            ],
            [
                "\u2581\u0627\u0644\u0627\u0633\u062a\u0631\u0627\u062a\u064a\u062c\u064a\u0629",
                -8.97082805633545
            ],
            [
                "\u2581form",
                -9.134048461914062
            ],
            [
                "\u2581\u0625\u0636\u0627\u0641\u064a\u0629",
                -8.949175834655762
            ],
            [
                "to",
                -9.038984298706055
            ],
            [
                "\u2581\u0627\u0644\u0633\u0646\u0648\u0627\u062a",
                -8.929192543029785
            ],
            [
                "\u2581strategies",
                -9.019815444946289
            ],
            [
                "\u2581\u0644\u0644\u062a\u0646\u0645\u064a\u0629",
                -8.934662818908691
            ],
            [
                "\u2581\u2022",
                -9.423563957214355
            ],
            [
                "\u2581\u0644\u062f\u064a\u0646\u0627",
                -8.816265106201172
            ],
            [
                "\u2581\u062a\u0641\u0639\u0644",
                -8.806066513061523
            ],
            [
                "\u2581purpose",
                -8.994032859802246
            ],
            [
                "\u2581\u0627\u0644\u062c\u062f\u0648\u0644",
                -8.942862510681152
            ],
            [
                "\u2581partners",
                -9.017545700073242
            ],
            [
                "\u2581play",
                -8.939997673034668
            ],
            [
                "\u2581self",
                -8.994868278503418
            ],
            [
                "\u2581Democratic",
                -8.951446533203125
            ],
            [
                "\u2581laws",
                -9.07066822052002
            ],
            [
                "\u2581steps",
                -9.02298355102539
            ],
            [
                "\u2581\u0644\u062c\u0645\u064a\u0639",
                -8.954463958740234
            ],
            [
                "\u2581questions",
                -9.018277168273926
            ],
            [
                "\u2581others",
                -9.121864318847656
            ],
            [
                "\u2581Agenda",
                -9.019643783569336
            ],
            [
                "\u2581\u0627\u0644\u062a\u0648\u0635\u064a\u0627\u062a",
                -8.95637035369873
            ],
            [
                "\u2581\u0627\u0644\u0639\u0633\u0643\u0631\u064a\u0629",
                -8.950010299682617
            ],
            [
                "\u2581\u0628\u062f\u0648\u0646",
                -8.888043403625488
            ],
            [
                "\u2581official",
                -8.99891185760498
            ],
            [
                "\u0640\u0640\u0640\u0640",
                -8.901719093322754
            ],
            [
                "\u2581Division",
                -9.026731491088867
            ],
            [
                "\u2581reduction",
                -9.023484230041504
            ],
            [
                "\u2581Charter",
                -9.02642822265625
            ],
            [
                "\u25812011",
                -9.628985404968262
            ],
            [
                "\u2581Good",
                -8.883838653564453
            ],
            [
                "\u2581H",
                -9.153902053833008
            ],
            [
                "\u2581age",
                -9.013493537902832
            ],
            [
                "\u2581promoting",
                -9.027252197265625
            ],
            [
                "\u2581interest",
                -9.011043548583984
            ],
            [
                "\u2581individual",
                -9.013126373291016
            ],
            [
                "\u2581text",
                -9.012969017028809
            ],
            [
                "\u2581notes",
                -9.046032905578613
            ],
            [
                "\u2581property",
                -9.025774002075195
            ],
            [
                "\u2581\u062a\u0637\u0628\u064a\u0642",
                -8.942376136779785
            ],
            [
                "\u2581100",
                -9.522406578063965
            ],
            [
                "\u2581organized",
                -9.022210121154785
            ],
            [
                "\u2581implementing",
                -9.034412384033203
            ],
            [
                "\u2581York",
                -9.006295204162598
            ],
            [
                "\u2581\u0623\u0644\u064a\u0633",
                -8.817620277404785
            ],
            [
                "\u2581\u062d\u0644",
                -8.913825988769531
            ],
            [
                "\u2581\u0646\u0645\u0648\u0627",
                -8.982470512390137
            ],
            [
                "\u2581\u0627\u0644\u0645\u0646\u0627\u062e",
                -8.994094848632812
            ],
            [
                "\u2581protect",
                -9.00866985321045
            ],
            [
                "\u2581performance",
                -9.037391662597656
            ],
            [
                "\u2581\u0647\u0624\u0644\u0627\u0621",
                -8.886652946472168
            ],
            [
                "\u2581Kingdom",
                -9.00780200958252
            ],
            [
                "\u2581\u0627\u0644\u0623\u0641\u0631\u064a\u0642\u064a",
                -8.996355056762695
            ],
            [
                "\u2581greater",
                -9.047450065612793
            ],
            [
                "\u2581equal",
                -9.0429048538208
            ],
            [
                "\u2581six",
                -9.008404731750488
            ],
            [
                "\u2581\u0634\u0624\u0648\u0646",
                -8.963994026184082
            ],
            [
                "\u2581\u0627\u0644\u062a\u0645\u0648\u064a\u0644",
                -8.984203338623047
            ],
            [
                "\u2581\u0627\u0644\u0645\u062c\u0627\u0644",
                -8.966290473937988
            ],
            [
                "\u2581\u062f\u0627\u0626\u0645\u0627",
                -8.878313064575195
            ],
            [
                "\u2581large",
                -9.03234577178955
            ],
            [
                "\u2581death",
                -8.986160278320312
            ],
            [
                "\u2581Other",
                -9.023991584777832
            ],
            [
                "\u2581posts",
                -9.063251495361328
            ],
            [
                "\u2581plans",
                -9.059792518615723
            ],
            [
                "\u2581aimed",
                -9.049712181091309
            ],
            [
                "\u2581approved",
                -9.039949417114258
            ],
            [
                "\u2581close",
                -8.986258506774902
            ],
            [
                "\u2581\u062a\u0648\u0635\u064a\u0627\u062a",
                -8.980668067932129
            ],
            [
                "\u2581Panel",
                -9.067378044128418
            ],
            [
                "\u2581previous",
                -9.043639183044434
            ],
            [
                ".5",
                -9.661323547363281
            ],
            [
                "\u2581\u0644\u0634\u0624\u0648\u0646",
                -8.978249549865723
            ],
            [
                "\u064a\u0631",
                -9.06253719329834
            ],
            [
                "\u062f\u064a",
                -8.78410816192627
            ],
            [
                "\u2581\u0628\u0627\u0644\u062a\u0639\u0627\u0648\u0646",
                -8.978650093078613
            ],
            [
                "\u2581proposals",
                -9.072072982788086
            ],
            [
                "\u2581Get",
                -8.914386749267578
            ],
            [
                "\u2581\u0627\u0644\u062d\u0645\u0627\u064a\u0629",
                -8.991847038269043
            ],
            [
                "\u2581\u0627\u0644\u062f\u0627\u062e\u0644\u064a",
                -8.97406005859375
            ],
            [
                "\u2581forms",
                -9.06224536895752
            ],
            [
                "\u2581study",
                -9.045392990112305
            ],
            [
                "\u2581\u0627\u0644\u062a\u0648\u062c\u064a\u0647\u064a\u0629",
                -8.998678207397461
            ],
            [
                "\u2581\u0627\u0644\u0645\u062e\u062f\u0631\u0627\u062a",
                -8.977131843566895
            ],
            [
                "\u2581issued",
                -9.058674812316895
            ],
            [
                "\u2581\u0627\u0644\u0646\u062a\u0627\u0626\u062c",
                -8.982466697692871
            ],
            [
                "\u2581Central",
                -9.035118103027344
            ],
            [
                "\u2581adequate",
                -9.058180809020996
            ],
            [
                "\u2581arrangements",
                -9.061749458312988
            ],
            [
                ".6",
                -9.767374038696289
            ],
            [
                "\u2581\u0647\u0645",
                -8.911627769470215
            ],
            [
                "\u25811998",
                -9.54270076751709
            ],
            [
                "\u2581facilitate",
                -9.042766571044922
            ],
            [
                "\u2581\u0627\u0644\u062c\u0646\u0633",
                -8.962621688842773
            ],
            [
                "\u2581supported",
                -9.071800231933594
            ],
            [
                "\u2581\u0627\u0644\u0637\u0627\u0642\u0629",
                -8.987754821777344
            ],
            [
                "\u2581joint",
                -9.060992240905762
            ],
            [
                "\u2581\u0644\u0636\u0645\u0627\u0646",
                -8.992597579956055
            ],
            [
                "\u2581understanding",
                -9.059647560119629
            ],
            [
                "\u2581essential",
                -9.058140754699707
            ],
            [
                "\u2581awareness",
                -9.057717323303223
            ],
            [
                "\u2581energy",
                -9.032472610473633
            ],
            [
                "\u2581\u0646\u0642\u0644",
                -8.979101181030273
            ],
            [
                "\u2581pursuant",
                -9.066295623779297
            ],
            [
                "\u2581knowledge",
                -9.044454574584961
            ],
            [
                "\u2581\u0627\u0644\u062c\u062f\u064a\u062f",
                -8.960055351257324
            ],
            [
                "\u2581\u0627\u0644\u062d\u062f\u0648\u062f",
                -8.971115112304688
            ],
            [
                "\u2581principle",
                -9.039816856384277
            ],
            [
                "\u2581\u0627\u0644\u0645\u062d\u0644\u064a",
                -8.97475528717041
            ],
            [
                "\u2581feel",
                -8.933527946472168
            ],
            [
                "AC",
                -9.586304664611816
            ],
            [
                "\u2581G",
                -9.278815269470215
            ],
            [
                "\u2581R",
                -9.18366813659668
            ],
            [
                "tergovernmental",
                -9.0930757522583
            ],
            [
                "\u2581won",
                -8.931042671203613
            ],
            [
                "\u2581\u0627\u0644\u0642\u0636\u0627\u0626\u064a\u0629",
                -9.019869804382324
            ],
            [
                "M",
                -9.55586051940918
            ],
            [
                "\u201d.",
                -9.48599910736084
            ],
            [
                "\u2581\u0627\u0644\u0633\u0646\u0629",
                -8.976225852966309
            ],
            [
                "level",
                -9.063431739807129
            ],
            [
[...]
